node {
  name: "Placeholder"
  op: "Placeholder"
  attr {
    key: "dtype"
    value {
      type: DT_FLOAT
    }
  }
  attr {
    key: "shape"
    value {
      shape {
      }
    }
  }
}
node {
  name: "Placeholder_1"
  op: "Placeholder"
  attr {
    key: "dtype"
    value {
      type: DT_FLOAT
    }
  }
  attr {
    key: "shape"
    value {
      shape {
      }
    }
  }
}
node {
  name: "Const"
  op: "Const"
  attr {
    key: "dtype"
    value {
      type: DT_FLOAT
    }
  }
  attr {
    key: "value"
    value {
      tensor {
        dtype: DT_FLOAT
        tensor_shape {
          dim {
            size: 2209
          }
          dim {
            size: 67
          }
        }
        tensor_content: "\000\000pB\000\000pB!\360mC\000\000pB3c]D\000\300\231D&S\024H\000\000pB\000\000\204B\244\370]D\000`\261D\000\200\271D\000\200\271D\316w\345H\000\000pB\000\000pBN\022 D\000\000\204B\000\200\271D\000\200\271D\256\341\330H\000\000XB\000\000XB\000\000[B\000\000XB\000\000XB\000\000\204B\000\000\020A\000\000XB\000\000XBu\023cB\000\000XB\000\000\204B\000\000\204B\024\256\324A\000\000XB\000\000XB\000\000`B\000\000XB\000\000\204B\000\000\204Bm\347\243A\000\000\300@\000\000\230A\000\000pA\000\000\320A\000\000\000\000\000\000@A\000\000\000\000\000\000\000\000\000\000\000\000\000\000\000\000\000\000\000\000\000\000\000\000\000\000\240@\000\000\210A\000\200?D\000\000@@\000\000\200@\000\000\200?\000\000\200?\000\000\000\000\000\000\000\000\000\000\200?\000\000\200?\000\000\000\000\000\000\000\000\000\000pB\000\000pB\000\000vB\000\000pB\000\000\204B\000\000\204B\000\000\020A\000\000pB\000\000pB\000\000|B\000\000|B\000\000\204B\000\000\204B\000\000\220A\000\000pB\000\000pB\000\000xB\000\000pB\000\000\204B\000\000\204B\232\231\031A\000\000XB\000\000XB\000\000dB\000\000XB\000\000\204B\000\000\204B\000\000\020B\000\000XB\000\000XB\000\000pB\000\000pB\000\000\204B\000\000\204B\000\000\220B\000\000XB\000\000XB\000\000hB\000\000XB\000\000\204B\000\000\204B\232\231\031B\000\000@@\000\000\000@\000\000@@\000\000\000@\000\000\000\000\000\000\000\000\000\000\000\000\000\000\000\000\000\000\000\000\000\000\000\000\000\000\000\000\000\000\000\000\000\000\000@\000\000\200?\000\000@A\000\000\000\000\000\000\000\000\000\000\200?\000\000\200?\000\000\200?\000\000\200?\000\000\200?\000\000\200?\000\000\000\000\000\000\000\000\000\000pB\000\000pB\234$6C\000\000pB3\323 D\000\000\"D\245zMG\000\000pB\000`\272C\254T\201D\000@\275D\000@\275D\000@\275D\305x\273H\000\000pB\000\000pB9$4D\000@\323C\000@\275D\000@\275D\354f\322H\000\000XB\000\000XBL\267YB\000\000XB\000\000XB\000\000\204Bu\223\244@\000\000XB\000\000XB\000\000]B\000\000XB\000\000XB\000\000\204Bh\221[A\000\000XB\000\000XB\272\311[B\000\000XB\000\000XB\000\000\204B\250\306)A\000\000 A\000\000,B\000\000\330A\000\000<B\000\000\000@\000\000\200?\000\000\000\000\000\000\000\000\000\000\000\000\000\000\000\000\000\000\000\000\000\000\000\000\000\000\020A\000\000$B\000\300XE\000\000\340@\000\000`A\000\000\200?\000\000\200?\000\000\200?\000\000\200?\000\000\200?\000\000\200?\000\000\000\000\000\000\000\000\000\000\204B\000\000\204B\000\300\200C\000\000\220B\315\274\036D\000\300\036D\215\231\246G\000\000\204B\000\000\204B33lC\000\000\224B\000\000\364C\000\000\364C3\235MG\000\000\204B\000\000\204Bh\321wC\000\000\224B\315\214\036D\000\300\036D*TyG\000\000\204B\000\000\204B\000\000\210B\000\000\204B\315\314\232B\000\000\234B\000\000\300A\000\000\204B\000\000\204B33\207B\000\000\204B\000\000\224B\000\000\224B\315\314LA\000\000\204B\000\000\204B\321\242\207B\000\000\204B\232\231\225B\000\000\234B\337O\211A\000\000\200@\000\000@@\000\000\240@\000\000\240@\000\000\200?\000\000\000\000\000\000\000\000\000\000\000\000\000\000\000\000\000\000\000\000\000\000\000\000\000\000\000\000\000\000\000@\000\000\000@\000 \216D\000\000\000@\000\000\000@\000\000\200?\000\000\200?\000\000\000\000\000\000\000\000\000\000\200?\000\000\200?\000\000\000\000\000\000\000\000\000\000pB\000\000pB\177\252\322B\000\000|Bf\346\211C\000\200\216C#\022\372E\000\000pB\000\000pB\000\000\244B\000\000pB\315\314%C\000\000;C\000\260\tE\000\000pB\000\000pB\272\211\271B\000\000pBff2C\000\200\216C\3372\217E\000\000XB\000\000XB\000\000`B\000\000XB\315\314\202B\000\000\204B\000\000\300A\000\000XB\000\000XB#\333^B\000\000XBff~B\000\000\204Bh\221\244A\000\000XB\000\000XBNb_B\000\000XB\232\231\201B\000\000\204B\311v\242A\000\000\200@\000\000\240@\000\000\240@\000\000\340@\000\000\000\000\000\000\000\000\000\000\000\000\000\000\000\000\000\000\000\000\000\000\000\000\000\000\000\000\000\000\000\000\000\000@@\000\000\200@\000\000\216C\000\000\000@\000\000\000@\000\000\200?\000\000\200?\000\000\200?\000\000\200?\000\000\200?\000\000\200?\000\000\000\000\000\000\000\000\000\000pB\000\000pB\000\000vB\000\000pB\000\000\204B\000\000\204B\000\000\020A\000\000pB\000\000pB\000\000pB\000\000pB\000\000pB\000\000pB\000\000\000\000\000\000pB\000\000pB\000\000tB\000\000pBff\203B\000\000\204B\000\000\300@\000\000XB\000\000XB\000\000dB\000\000XB\000\000\204B\000\000\204B\000\000\020B\000\000XB\000\000XB\000\000`B\000\000`B\000\000hB\000\000hB\000\000\000A\000\000XB\000\000XB\002\253bB\000\000XB33\203B\000\000\204Bj\274\273A\000\000@@\000\000\000@\000\000@@\000\000\000@\000\000\000\000\000\000\000\000\000\000\000\000\000\000\000\000\000\000\000\000\000\000\000\000\000\000\000\000\000\000\000\000\000\000\000@\000\000\000@\000\000@A\000\000\000\000\000\000\000\000\000\000\200?\000\000\200?\000\000\200?\000\000\200?\000\000\200?\000\000\000\000\000\000\000\000\000\000\000\000\000\000pB\000\000pB%\206\375B\000\000pB\000\000\220C\000\2000D\224\305\300F\000\000pB\000\000pB\226\343\230C\000\000\214B\000@\236D\000@\236D\033\037GH\000\000pB\000\000pB\217bQC\000\000pB\000\000\251C\000@\236D\230}\333G\000\000XB\000\000XBo\222\\B\000\000XB\000\000XB\000\000\234B\230n\333A\000\000XB\000\000XBT\343XB\000\000XB\000\000XB\000\000hB\201\225c?\000\000XB\000\000XB;\337ZB\000\000XB\000\000XB\000\000\234B\315\314pA\000\000 A\000\000@A\000\000\240A\000\000\220A\000\000\000\000\000\000\200?\000\000\000\000\000\000\000\000\000\000\000\000\000\000\000\000\000\000\000\000\000\000\000\000\000\000\020A\000\000@A\000\240\261D\000\000\340@\000\000\020A\000\000\200?\000\000\200?\000\000\000@\000\000\200?\000\000\200?\000\000\000\000\000\000\000\000\000\000\000\000\000\000pB\000\000pB\000\300\334B\000\000pBf\006\204C\000\200\212C72\004F\000\000pB\000\000pB\230\256\246C\000\000\204B\000@\275D\000@\275D;x\246H\000\000pB\000\000pBXyoC\000\000pB\000\200\212C\000@\275D\212\254HH\000\000XB\000\000XB\000\000^B\000\000XB33wB\000\000\204B\000\000\220A\000\000XB\000\000XB/]\\B\000\000XB\232\231aB\000\000\204B\274tQA\000\000XB\000\000XBP\r]B\000\000XB\000\000XB\000\000\204BV\016eA\000\000\200@\000\000\020A\000\000\340@\000\0000A\000\000\000\000\000\000\000\000\000\000\000\000\000\000\000\000\000\000\000\000\000\000\000\000\000\000\000\000\000\000\000\000\000\000@@\000\000\000A\000\200\317C\000\000\000@\000\000\200@\000\000\200?\000\000\200?\000\000\200?\000\000\200?\000\000\200?\000\000\200?\000\000\000\000\000\000\000\000\000\000pB\000\000pB/]\216B\000\000pB\000\000\204B\000@\275D\005\035BF\000\000pB\000@\275D\250b\274D\000@\275D\000@\275D\000@\275D\033\026\371E\000\000pB\000@\275D\374=\227D\000@\275D\000@\275D\000@\275D\341\232\251H\000\000XB\000\000XB;\337`B\000\000XB\000\000\204B\000\000\204B\250\306\255A\000\000XB\000\000XB\031\004XB\000\000XB\000\000XB\000\000\204B\177j<=\000\000XB\000\000XB\027\331YB\000\000XB\000\000XB\000\000\204B\276\237\252@\000\000 A\000\360@E\000\000LD\000\260CE\000\200\215C\000@\225D\000\000\000\000\000\000\000\000\000\000\000\000\000\000\000\000\000\000\000\000\000\000\000\000\000\000\020A\000\340@E\000 uE\000\000\200@\000\000\350A\000\000\200?\000\000\200?\000\000\200?\000\000\200?\000\000\200?\000\000\200?\000\000\000\000\000\000\000\000\000\000pB\000\000pB\000\000vB\000\000pB\000\000\204B\000\000\204B\000\000\020A\000\000pB\000\000pB\000\000pB\000\000pB\000\000pB\000\000pB\000\000\000\000\000\000pB\000\000pB\000\000tB\000\000pBff\203B\000\000\204B\000\000\300@\000\000XB\000\000XB\000\000dB\000\000XB\000\000\204B\000\000\204B\000\000\020B\000\000XB\000\000XB\000\000`B\000\000`B\000\000hB\000\000hB\000\000\000A\000\000XB\000\000XB\002\253bB\000\000XB33\203B\000\000\204Bj\274\273A\000\000@@\000\000\000@\000\000@@\000\000\000@\000\000\000\000\000\000\000\000\000\000\000\000\000\000\000\000\000\000\000\000\000\000\000\000\000\000\000\000\000\000\000\000\000\000\000@\000\000\000@\000\000@A\000\000\000\000\000\000\000\000\000\000\200?\000\000\200?\000\000\200?\000\000\200?\000\000\200?\000\000\000\000\000\000\000\000\000\000\000\000\000\000pB\000\000pB\232\231\313B\000\000pB\000\200\203C\000\200\203C\232\371\375E\000\000pB\000\000pB\000\000\026C\000\000\204B\000\000\242C\000\000\242C\000x\261F\000\000pB\000\000pB\000\300\357B\000\000|B3S\227C\000\000\242C\311\2627F\000\000XB\000\000XB\232\231aB\000\000XB\000\000\204B\000\000\204Bff\346A\000\000XB\000\000XB\000\000hB\000\000XB\000\000\204B\000\000\204B\000\000@B\000\000XB\000\000XB\000\000dB\000\000XB\000\000\204B\000\000\204B#\333\366A\000\000@@\000\000\000@\000\000\200@\000\000@@\000\000\000\000\000\000\000\000\000\000\000\000\000\000\000\000\000\000\000\000\000\000\000\000\000\000\000\000\000\000\000\000\000\000\000@\000\000\200?\000\000WC\000\000\200?\000\000\200?\000\000\200?\000\000\200?\000\000\000\000\000\000\000\000\000\000\200?\000\000\200?\000\000\000\000\000\000\000\000\000\000pB\000\000pB\262\355\240C\000\000\204B\000\300yD\000\200~D\336{@H\000\000pB\000\000|B\000\000\271C\000\000\006D\000\200\024D\000\200\024D\000\201\232G\000\000pB\000\000pB`\365\252C\000\000\204B\000\360gD\000\200~D\327\256\005H\000\000XB\000\000XBL\267eB\000\000XB\000\000\204B\000\000\204B\335$\tB\000\000XB\000\000XB\232\231aB\000\000XB\000\000\204B\000\000\204Bff\346A\000\000XB\000\000XB\000\000dB\000\000XB\000\000\204B\000\000\204B\327\243\353A\000\000\200@\000\000@@\000\000\300@\000\000\240@\000\000\000\000\000\000\000\000\000\000\000\000\000\000\000\000\000\000\000\000\000\000\000\000\000\000\000\000\000\000\000\000\000\000\000@\000\000\000@\000\200rD\000\000\000@\000\000@@\000\000\200?\000\000\200?\000\000\000\000\000\000\000\000\000\000\200?\000\000\200?\000\000\000\000\000\000\000\000\000\000pB\000\000pB\000\260\352C\000\000pBf\256\225D\000\200\271D\221\254\230H\000\000pB\000\000pBTC\313C\000\000\204B\000\200\200D\000\200\271D\n\372wH\000\000pB\000\000pB\345\240\331C\000\000\204B\315L\224D\000\200\271Dd}\205H\000\000XB\000\000XB\000\000XB\000\000XB\000\000XB\000\000XB\000\000\000\000\000\000XB\000\000XB\313\241dB\000\000XB\000\000\204B\000\000\204B\301\312\353A\000\000XB\000\000XB#\333^B\000\000XB\315\314tB\000\000\204B?5\221A\000\000\020A\000\000\020A\000\000\200A\000\000\230A\000\000\000\000\000\000\000@\000\000\000\000\000\000\000\000\000\000\000\000\000\000\000\000\000\000\000\000\000\000\000\000\000\000\020A\000\000\340@\000x\263E\000\000\240@\000\000\300@\000\000\000\000\000\000\000\000\000\000\000\000\000\000\000\000\000\000\000\000\000\000\000\000\000\000\000\000\000\000\000\000\000\000pB\000\000pBj<\264B\000\000\204Bf\346\004C\000\000bC\303\201!E\000\000pB\000\000pB\000\240nC\000\000\235B3\303\036D\000\200\271D\273\302(H\000\000pB\000\000pB\372\036\"C\000\000\204B\315LJC\000\200\271D\356\324\253G\000\000XB\000\000XB\362\322ZB\000\000XB\000\000XB\000\000\204B7\211\007A\000\000XB\000\000XB\000\000[B\000\000XB\000\000XB\000\000\204B\000\000\020A\000\000XB\000\000XBs\350ZB\000\000XB\000\000XB\000\000\204B\256G\007A\000\000 A\000\0000A\000\000\200A\000\000PA\000\000\000\000\000\000\200?\000\000\000\000\000\000\000\000\000\000\000\000\000\000\000\000\000\000\000\000\000\000\000\000\000\000\020A\000\000 A\000\000\371C\000\000\000A\000\000\340@\000\000\200?\000\000\200?\000\000\200?\000\000\200?\000\000\200?\000\000\200?\000\000\000\000\000\000\000\000\000\000pB\000\000pB\000\000vB\000\000pB\000\000\204B\000\000\204B\000\000\020A\000\000pB\000\000pB\000\000pB\000\000pB\000\000pB\000\000pB\000\000\000\000\000\000pB\000\000pB\000\000tB\000\000pBff\203B\000\000\204B\000\000\300@\000\000XB\000\000XB\000\000dB\000\000XB\000\000\204B\000\000\204B\000\000\020B\000\000XB\000\000XB\000\000`B\000\000`B\000\000hB\000\000hB\000\000\000A\000\000XB\000\000XB\002\253bB\000\000XB33\203B\000\000\204Bj\274\273A\000\000@@\000\000\000@\000\000@@\000\000\000@\000\000\000\000\000\000\000\000\000\000\000\000\000\000\000\000\000\000\000\000\000\000\000\000\000\000\000\000\000\000\000\000\000\000\000@\000\000\000@\000\000@A\000\000\000\000\000\000\000\000\000\000\200?\000\000\200?\000\000\200?\000\000\200?\000\000\200?\000\000\000\000\000\000\000\000\000\000\000\000\000\000pB\000\000pB\307\213\322B\000\000pBffKC\000\200\352Cy\206kF\000\000pB\000\000pB\201\325\251B\000\000|B\000\000\340B\000\000OC7q\343D\000\000pB\000\000pB\323M\275B\000\000pB\000\000\356B\000\200\352C\024\354\365E\000\000XB\000\000XB^\272`B\000\000XB\000\000\204B\000\000\204B\022\203\274A\000\000XB\000\000XB\000\000\\B\000\000XBffZB\000\000\204B\000\000@A\000\000XB\000\000XB\217B^B\000\000XB33kB\000\000\204B\232\231\210A\000\000\300@\000\000\340@\000\000 A\000\000@A\000\000\200?\000\000\000\000\000\000\000\000\000\000\000\000\000\000\000\000\000\000\000\000\000\000\000\000\000\000\000\000\000\000\200@\000\000\300@\000\000\377C\000\000\000@\000\000\240@\000\000\200?\000\000\200?\000\000\200?\000\000\200?\000\000\200?\000\000\200?\000\000\000\000\000\000\000\000\000\000pB\000\000pB\177\252\322B\000\000|Bf\346\211C\000\200\216C#\022\372E\000\000pB\000\000pB\000\000\244B\000\000pB\315\314%C\000\000;C\000\260\tE\000\000pB\000\000pB\272\211\271B\000\000pBff2C\000\200\216C\3372\217E\000\000XB\000\000XB\000\000`B\000\000XB\315\314\202B\000\000\204B\000\000\300A\000\000XB\000\000XB#\333^B\000\000XBff~B\000\000\204Bh\221\244A\000\000XB\000\000XBNb_B\000\000XB\232\231\201B\000\000\204B\311v\242A\000\000\200@\000\000\240@\000\000\240@\000\000\340@\000\000\200?\000\000\000\000\000\000\000\000\000\000\000\000\000\000\000\000\000\000\000\000\000\000\000\000\000\000\000\000\000\000@@\000\000\200@\000\000\216C\000\000\000@\000\000\000@\000\000\200?\000\000\200?\000\000\200?\000\000\200?\000\000\200?\000\000\200?\000\000\000\000\000\000\000\000\000\000pB\000\000pB\315\314tB\000\000pB\000\000\204B\000\000\204Bff\346@\000\000pB\000\000pB\000\000pB\000\000pB\000\000pB\000\000pB\000\000\000\000\000\000pB\000\000pB\000\000sB\000\000pB\232\231\177B\000\000\204B\000\000\220@\000\000XB\000\000XB\232\231aB\000\000XB\000\000\204B\000\000\204Bff\346A\000\000XB\000\000XB\376T]B\000\000XB\000\000hB\000\000hB\360\247\252@\000\000XB\000\000XB\000\000`B\000\000XB\315\314|B\000\000\204B\272I\222A\000\000@@\000\000\000@\000\000\200@\000\000@@\000\000\000\000\000\000\000\000\000\000\000\000\000\000\000\000\000\000\000\000\000\000\000\000\000\000\000\000\000\000\000\000\000\000\000@\000\000\000@\000\000@A\000\000\000\000\000\000\000\000\000\000\200?\000\000\200?\000\000\200?\000\000\000@\000\000\200?\000\000\000\000\000\000\000\000\000\000\000\000\000\000pB\000\000pB\000\000vB\000\000pB\000\000\204B\000\000\204B\000\000\020A\000\000pB\000\000pB\000\000pB\000\000pB\000\000pB\000\000pB\000\000\000\000\000\000pB\000\000pB\000\000tB\000\000pBff\203B\000\000\204B\000\000\300@\000\000XB\000\000XB\000\000dB\000\000XB\000\000\204B\000\000\204B\000\000\020B\000\000XB\000\000XB\000\000`B\000\000`B\000\000hB\000\000hB\000\000\000A\000\000XB\000\000XB\002\253bB\000\000XB33\203B\000\000\204Bj\274\273A\000\000@@\000\000\000@\000\000@@\000\000\000@\000\000\000\000\000\000\000\000\000\000\000\000\000\000\000\000\000\000\000\000\000\000\000\000\000\000\000\000\000\000\000\000\000\000\000@\000\000\000@\000\000@A\000\000\000\000\000\000\000\000\000\000\200?\000\000\200?\000\000\200?\000\000\200?\000\000\200?\000\000\000\000\000\000\000\000\000\000\000\000\000\000pB\000\000pB\000\000vB\000\000pB\000\000\204B\000\000\204B\000\000\020A\000\000pB\000\000pB\000\000|B\000\000|B\000\000\204B\000\000\204B\000\000\220A\000\000pB\000\000pB\000\000xB\000\000pB\000\000\204B\000\000\204B\232\231\031A\000\000XB\000\000XB\000\000dB\000\000XB\000\000\204B\000\000\204B\000\000\020B\000\000XB\000\000XB\000\000pB\000\000pB\000\000\204B\000\000\204B\000\000\220B\000\000XB\000\000XB\000\000hB\000\000XB\000\000\204B\000\000\204B\232\231\031B\000\000@@\000\000\000@\000\000@@\000\000\000@\000\000\000\000\000\000\000\000\000\000\000\000\000\000\000\000\000\000\000\000\000\000\000\000\000\000\000\000\000\000\000\000\000\000\000@\000\000\200?\000\000@A\000\000\000\000\000\000\000\000\000\000\200?\000\000\200?\000\000\200?\000\000\200?\000\000\200?\000\000\200?\000\000\000\000\000\000\000\000\000\000pB\000\000pB\000\000vB\000\000pB\000\000\204B\000\000\204B\000\000\020A\000\000pB\000\000pB\000\000pB\000\000pB\000\000pB\000\000pB\000\000\000\000\000\000pB\000\000pB\000\000tB\000\000pBff\203B\000\000\204B\000\000\300@\000\000XB\000\000XB\000\000dB\000\000XB\000\000\204B\000\000\204B\000\000\020B\000\000XB\000\000XB\000\000`B\000\000`B\000\000hB\000\000hB\000\000\000A\000\000XB\000\000XB\002\253bB\000\000XB33\203B\000\000\204Bj\274\273A\000\000@@\000\000\000@\000\000@@\000\000\000@\000\000\000\000\000\000\000\000\000\000\000\000\000\000\000\000\000\000\000\000\000\000\000\000\000\000\000\000\000\000\000\000\000\000\000@\000\000\000@\000\000@A\000\000\000\000\000\000\000\000\000\000\200?\000\000\200?\000\000\200?\000\000\200?\000\000\200?\000\000\000\000\000\000\000\000\000\000\000\000\000\000pB\000\000pB\000\000vB\000\000pB\000\000\204B\000\000\204B\000\000\020A\000\000pB\000\000pB\000\000pB\000\000pB\000\000pB\000\000pB\000\000\000\000\000\000pB\000\000pB\000\000tB\000\000pBff\203B\000\000\204B\000\000\300@\000\000XB\000\000XB\000\000dB\000\000XB\000\000\204B\000\000\204B\000\000\020B\000\000XB\000\000XB\000\000`B\000\000`B\000\000hB\000\000hB\000\000\000A\000\000XB\000\000XB\002\253bB\000\000XB33\203B\000\000\204Bj\274\273A\000\000@@\000\000\000@\000\000@@\000\000\000@\000\000\000\000\000\000\000\000\000\000\000\000\000\000\000\000\000\000\000\000\000\000\000\000\000\000\000\000\000\000\000\000\000\000\000@\000\000\000@\000\000@A\000\000\000\000\000\000\000\000\000\000\200?\000\000\200?\000\000\200?\000\000\200?\000\000\200?\000\000\000\000\000\000\000\000\000\000\000\000\000\000pB\000\000pB\000\000vB\000\000pB\000\000\204B\000\000\204B\000\000\020A\000\000pB\000\000pB\000\000|B\000\000|B\000\000\204B\000\000\204B\000\000\220A\000\000pB\000\000pB\000\000xB\000\000pB\000\000\204B\000\000\204B\232\231\031A\000\000XB\000\000XB\000\000dB\000\000XB\000\000\204B\000\000\204B\000\000\020B\000\000XB\000\000XB\000\000pB\000\000pB\000\000\204B\000\000\204B\000\000\220B\000\000XB\000\000XB\000\000hB\000\000XB\000\000\204B\000\000\204B\232\231\031B\000\000@@\000\000\000@\000\000@@\000\000\000@\000\000\000\000\000\000\000\000\000\000\000\000\000\000\000\000\000\000\000\000\000\000\000\000\000\000\000\000\000\000\000\000\000\000\000@\000\000\200?\000\000@A\000\000\000\000\000\000\000\000\000\000\200?\000\000\200?\000\000\200?\000\000\200?\000\000\200?\000\000\200?\000\000\000\000\000\000\000\000\000\000pB\000\000pB\252q\344B\000\000pB\000\000\230C\000\200\007D\343\022\311F\000\000pB\000\000\204B\000\000\332B\000\000\204B\000\300\222C\000\000\320C\000\200pF\000\000pB\000\000pB\256\207\337B\000\000\204B\000\000+C\000\200\007D\3423\231F\000\000XB\000\000XB\376T]B\000\000XB\000\000pB\000\000\204B\000\000\200A\000\000XB\000\000dB\000\000|B\000\000\204B\000\000\204B\000\000\204B#\333\366A\000\000XB\000\000XB\226\303kB\000\000XB\000\000\204B\000\000\204Bj<\024B\000\000\200@\000\000@@\000\000\000A\000\000\000A\000\000\000\000\000\000\000\000\000\000\000\000\000\000\000\000\000\000\000\000\000\000\000\000\000\000\000\000\000\000\000\000\000\000@@\000\000\200?\000\000\372C\000\000\200?\000\000\200?\000\000\200?\000\000\200?\000\000\000\000\000\000\000\000\000\000\200?\000\000\200?\000\000\000\000\000\000\000\000\000\000pB\000\000pB\301*lC\000\000pBf\376\202D\000`\211D\327\211.H\000\000pB\000\000pB\000\000\330B\000\000pB\000\000\223C\000\000\223C\000\010)F\000\000pB\000\000pB\264\3501C\000\000pB\000\200\343C\000`\211Dr\275\277G\000\000XB\000\000XB\000\000hB\000\000XB\232\231\231B\000\000\234B\000\000\300B\000\000XB\000\000XB\232\231aB\000\000XB\000\000\204B\000\000\204Bff\346A\000\000XB\000\000XB\215\027eB\000\000XB\315\314\210B\000\000\234B;\337pB\000\000@@\000\000\200@\000\000\240@\000\000\240@\000\000\000\000\000\000\000\000\000\000\000\000\000\000\000\000\000\000\000\000\000\000\000\000\000\000\000\000\000\000\000\000\000\000\000@\000\000@@\000`\203D\000\000\200?\000\000\200?\000\000\200?\000\000\200?\000\000\200?\000\000\200?\000\000\200?\000\000\200?\000\000\000\000\000\000\000\000\000\000pB\000\000pB\254\034\375B\000\000pB\000@\262C\000\000\334C\216l\222F\000\000pB\000\000\204B\000\300\262B\000\000\204Bf&3C\000\000ZC\223\2266E\000\000pB\000\000pB5\036\332B\000\000\204B\000\200jC\000\000\334C\274\034,F\000\000XB\000\000XB\376T]B\000\000XB\000\000pB\000\000\204B\000\000\200A\000\000XB\000\000XB\000\000vB\000\000\204B\000\000\204B\000\000\204B\264H\032B\000\000XB\000\000XB\244\360hB\000\000XB\000\000\204B\000\000\204B\226\303\013B\000\000\240@\000\000\200@\000\000\000A\000\000\000A\000\000\000\000\000\000\000\000\000\000\000\000\000\000\000\000\000\000\000\000\000\000\000\000\000\000\000\000\000\000\000\000\000\000\200@\000\000\000@\000@\032D\000\000\000@\000\000\000@\000\000\200?\000\000\200?\000\000\000\000\000\000\000\000\000\000\200?\000\000\200?\000\000\000\000\000\000\000\000\000\000\204B\000\000\204BffXC\000\000\204B\000\200ID\000\200IDf:\324G\000\000\204B\000\000\220B\260\n1D\000 \007D\000@\275D\000@\275D\354\350\365H\000\000\204B\000\000\204BhQ\362C\000\000\234B\000@\275D\000@\275D\333a\260H\000\000\204B\000\000\204B\315\314\210B\000\000\204B\000\000\234B\000\000\234Bff\346A\000\000\204B\000\000\204B\177\252\206B\000\000\204B33\223B\000\000\224B\010\254*A\000\000\204B\000\000\204B\321\242\207B\000\000\204B\232\231\225B\000\000\234B\337O\211A\000\000@@\000\000\240@\000\000\200@\000\000\300@\000\000\000\000\000\000\000\000\000\000\000\000\000\000\000\000\000\000\000\000\000\000\000\000\000\000\000\000\000\000\000\000\000\000\200?\000\000\200@\000\0009D\000\000\200?\000\000\000@\000\000\200?\000\000\200?\000\000\000\000\000\000\000\000\000\000\200?\000\000\200?\000\000\000\000\000\000\000\000\000\000pB\000\000pB\252qBC\000\000pB\000@&D\000\000\236D\362\031\035H\000\000pB\000\000pB\000\300\341B\000\000\204B\232\271\240C\000\200\345C\322\340\230F\000\000pB\000\000pB\033\017\034C\000\000pBf\3467C\000\000\236D(C\261G\000\000XB\000\000XB\376T]B\000\000XB\000\000pB\000\000\204B\000\000\200A\000\000XB\000\000XB\000\000pB\000\000pB\000\000\204B\000\000\204Bo\222$B\000\000XB\000\000XB\262\035fB\000\000XB\000\000\204B\000\000\204B\270\036\376A\000\000\200@\000\000\200@\000\000\000A\000\000\000A\000\000\200?\000\000\000\000\000\000\000\000\000\000\000\000\000\000\000\000\000\000\000\000\000\000\000\000\000\000\000\000\000\000@@\000\000\000@\000\300\230D\000\000\200?\000\000\200?\000\000\200?\000\000\200?\000\000\200?\000\000\200?\000\000\200?\000\000\200?\000\000\000\000\000\000\000\000\000\000pB\000\000pB33OC\000\000pB\000\200CD\000\200CD\232\272\311G\000\000pB\000\000pB\000\200\032C\000\000pB\000\000\333C\000\000\333C\000\211\013G\000\000pB\000\000pB+\3077C\000\000pB\000\200\030D\000\200CD\271\210\200G\000\000XB\000\000XB\000\000hB\000\000XB\000\000\224B\000\000\224B\000\000\240B\000\000XB\000\000XB\000\000\\B\000\000XB\000\000hB\000\000hB\000\000\200@\000\000XB\000\000XB\002\253bB\000\000XB\000\000\204B\000\000\224B\000\0000B\000\000@@\000\000\200@\000\000\200@\000\000\200@\000\000\000\000\000\000\000\000\000\000\000\000\000\000\000\000\000\000\000\000\000\000\000\000\000\000\000\000\000\000\000\000\000\000\000@\000\000\200@\000\2007D\000\000\200?\000\000\200?\000\000\200?\000\000\200?\000\000\200?\000\000\200?\000\000\200?\000\000\000\000\000\000\000\000\000\000\000\000\000\000\204B\000\000\204B\000`\000C\000\000\204B\232\371\301C\000@\013D\256e\352F\000\000\204B\000\000\204B\000 \230C\000\000\214B\000\300|D\000\300|D\020\317XH\000\000\204B\000\000\204B\000\000;C\000\000\204B\315\354\020D\000\300|D\0272\252G\000\000\204B\000\000\204B\000\000\206B\000\000\204Bff\216B\000\000\224B\000\000\000A\000\000\204B\000\000\204B\000\000\210B\000\000\204B\000\000\224B\000\000\224B\000\000\200A\000\000\204B\000\000\204B\177\252\206B\000\000\204B\000\000\224B\000\000\224B\351&\033A\000\000\200@\000\000@@\000\000\340@\000\000\200@\000\000\000\000\000\000\000\000\000\000\000\000\000\000\000\000\000\000\000\000\000\000\000\000\000\000\000\000\000\000\000\000\000\000\200?\000\000\200?\000\200\365C\000\000\200?\000\000\200?\000\000\200?\000\000\200?\000\000@@\000\000\200?\000\000\200?\000\000\200?\000\000\000\000\000\000\000\000\000\000pB\000\000pB\000\000vB\000\000pB\000\000\204B\000\000\204B\000\000\020A\000\000pB\000\000pB\000\000|B\000\000|B\000\000\204B\000\000\204B\000\000\220A\000\000pB\000\000pB\000\000xB\000\000pB\000\000\204B\000\000\204B\232\231\031A\000\000XB\000\000XB\000\000dB\000\000XB\000\000\204B\000\000\204B\000\000\020B\000\000XB\000\000XB\000\000pB\000\000pB\000\000\204B\000\000\204B\000\000\220B\000\000XB\000\000XB\000\000hB\000\000XB\000\000\204B\000\000\204B\232\231\031B\000\000@@\000\000\000@\000\000@@\000\000\000@\000\000\000\000\000\000\000\000\000\000\000\000\000\000\000\000\000\000\000\000\000\000\000\000\000\000\000\000\000\000\000\000\000\000\000@\000\000\200?\000\000@A\000\000\000\000\000\000\000\000\000\000\200?\000\000\200?\000\000\200?\000\000\200?\000\000\200?\000\000\200?\000\000\000\000\000\000\000\000\000\000pB\000\000pB\000\000pB\000\000pB\000\000pB\000\000pB\000\000\000\000\000\000pB\000\000pBff~B\000\000\204B\000\000\204B\000\000\204B\315\314,A\000\000pB\000\000pB33wB\000\000pB\000\000\204B\000\000\204Bff\006A\000\000XB\000\000XB\000\000XB\000\000XB\000\000XB\000\000XB\000\000\000\000\000\000XB\000\000XB\315\314tB\000\000\204B\000\000\204B\000\000\204B\315\314,B\000\000XB\000\000XBfffB\000\000XB\000\000\204B\000\000\204Bff\006B\000\000\000@\000\000\000@\000\000\240@\000\000\200@\000\000\000\000\000\000\000\000\000\000\000\000\000\000\000\000\000\000\000\000\000\000\000\000\000\000\000\000\000\000\000\000\000\000\000@\000\000\200?\000\000@A\000\000\000\000\000\000\000\000\000\000\000\000\000\000\000\000\000\000\200?\000\000\200?\000\000\000\000\000\000\000\000\000\000\000\000\000\000\000\000\000\000\204B\000\000\204B\345P>C\000\000\204Bf\346\333C\000\000\220D\026\032\202G\000\000\204B\000@\275D5\376\244D\000@\275D\000@\275D\000@\275D%1%H\000\000\204B\000\000\204B\372VUD\000\240}D\000@\275D\000@\275D;\014\326H\000\000\204B\000\000\204B\313\241\204B\000\000\204B\000\000\204B\000\000\234B\372~r@\000\000\204B\000\000\204B\307K\204B\000\000\204B\000\000\204B\000\000\224B\024\256\227?\000\000\204B\000\000\204B\033o\204B\000\000\204B\000\000\204B\000\000\234Bd;\017@\000\0000A\000\000TB\000\000\024B\000\000XB\000\000\240@\000\000\210A\000\000\000\000\000\000\000\000\000\000\000\000\000\000\000\000\000\000\000\000\000\000\000\000\000\000\000A\000\000LB\000\240bE\000\000\020A\000\000\020A\000\000\200?\000\000\200?\000\000\000\000\000\000\200?\000\000\200?\000\000\200?\000\000\000\000\000\000\000\000\000\000pB\000\000pB\000\000vB\000\000pB\000\000\204B\000\000\204B\000\000\020A\000\000pB\000\000pB\000\000pB\000\000pB\000\000pB\000\000pB\000\000\000\000\000\000pB\000\000pB\221msB\000\000pB\232\231\201B\000\000\204Bu\223\244@\000\000XB\000\000XB\000\000dB\000\000XB\000\000\204B\000\000\204B\000\000\020B\000\000XB\000\000XB\376T]B\000\000XB\000\000hB\000\000hB\360\247\252@\000\000XB\000\000XB\335$aB\000\000XB\315\314\200B\000\000\204Bh\221\244A\000\000@@\000\000\000@\000\000@@\000\000@@\000\000\000\000\000\000\000\000\000\000\000\000\000\000\000\000\000\000\000\000\000\000\000\000\000\000\000\000\000\000\000\000\000\000\000@\000\000\000@\000\000@A\000\000\000\000\000\000\000\000\000\000\200?\000\000\200?\000\000\200?\000\000\200?\000\000\200?\000\000\000\000\000\000\000\000\000\000\000\000\000\000pB\000\000pB\000\000vB\000\000pB\000\000\204B\000\000\204B\000\000\020A\000\000pB\000\000pB\000\000pB\000\000pB\000\000pB\000\000pB\000\000\000\000\000\000pB\000\000pB\000\000tB\000\000pBff\203B\000\000\204B\000\000\300@\000\000XB\000\000XB\000\000dB\000\000XB\000\000\204B\000\000\204B\000\000\020B\000\000XB\000\000XB\000\000`B\000\000`B\000\000hB\000\000hB\000\000\000A\000\000XB\000\000XB\002\253bB\000\000XB33\203B\000\000\204Bj\274\273A\000\000@@\000\000\000@\000\000@@\000\000\000@\000\000\000\000\000\000\000\000\000\000\000\000\000\000\000\000\000\000\000\000\000\000\000\000\000\000\000\000\000\000\000\000\000\000\000@\000\000\000@\000\000@A\000\000\000\000\000\000\000\000\000\000\200?\000\000\200?\000\000\200?\000\000\200?\000\000\200?\000\000\000\000\000\000\000\000\000\000\000\000\000\000pB\000\000pB\315\314tB\000\000pB\000\000\204B\000\000\204Bff\346@\000\000pB\000\000pB\000\000|B\000\000|B\000\000\204B\000\000\204B\000\000\220A\000\000pB\000\000pB#\333vB\000\000pB\000\000\204B\000\000\204B\321\"\tA\000\000XB\000\000XB\232\231aB\000\000XB\000\000\204B\000\000\204Bff\346A\000\000XB\000\000XB\000\000pB\000\000pB\000\000\204B\000\000\204B\000\000\220B\000\000XB\000\000XBL\267eB\000\000XB\000\000\204B\000\000\204B\335$\tB\000\000@@\000\000\000@\000\000\200@\000\000\000@\000\000\000\000\000\000\000\000\000\000\000\000\000\000\000\000\000\000\000\000\000\000\000\000\000\000\000\000\000\000\000\000\000\000\000@\000\000\200?\000\000@A\000\000\000\000\000\000\000\000\000\000\200?\000\000\200?\000\000\000@\000\000\200?\000\000\200?\000\000\200?\000\000\000\000\000\000\000\000\000\000pB\000\000pBsx\201C\000\000pB\315\354MD\000\000\257D\234\241\033H\000\000pB\000\0007D\366\030\221D\000\200\271D\000\200\271D\000\200\271D\347k\223H\000\000pB\000\000pB\254\034`D\000@\264D\000\200\271D\000\200\271D\264\005\321H\000\000XB\000\000XB\362\322ZB\000\000XB\000\000XB\000\000\204B7\211\007A\000\000XB\000\000XB\022\203[B\000\000XB\000\000XB\000\000\204B\366( A\000\000XB\000\000XB\337O[B\000\000XB\000\000XB\000\000\204B+\207\026A\000\000\340@\000\000\030B\000\000\200A\000\000$B\000\000\000\000\000\000\000\000\000\000\000\000\000\000\000\000\000\000\000\000\000\000\000\000\000\000\000\000\000\000\000\000\000\000\300@\000\000\020B\000@UE\000\000\200@\000\000\340@\000\000\200?\000\000\200?\000\000\000\000\000\000\000\000\000\000\200?\000\000\200?\000\000\000\000\000\000\000\000\000\000pB\000\000pB33OC\000\000pB\000\200CD\000\200CD\232\272\311G\000\000pB\000\000pB\000\200\032C\000\000pB\000\000\333C\000\000\333C\000\211\013G\000\000pB\000\000pB+\3077C\000\000pB\000\200\030D\000\200CD\271\210\200G\000\000XB\000\000XB\000\000hB\000\000XB\000\000\224B\000\000\224B\000\000\240B\000\000XB\000\000XB\000\000\\B\000\000XB\000\000hB\000\000hB\000\000\200@\000\000XB\000\000XB\002\253bB\000\000XB\000\000\204B\000\000\224B\000\0000B\000\000@@\000\000\200@\000\000\200@\000\000\200@\000\000\000\000\000\000\000\000\000\000\000\000\000\000\000\000\000\000\000\000\000\000\000\000\000\000\000\000\000\000\000\000\000\000\000@\000\000\200@\000\2007D\000\000\200?\000\000\200?\000\000\200?\000\000\200?\000\000\200?\000\000\200?\000\000\200?\000\000\000\000\000\000\000\000\000\000\000\000\000\000\204B\000\000\204B3\263\360B\000\000\204B\232\231\221B\000\000QD\216d\001G\000\000\204B\000\000\335C\276{\213D\000\200\271D\000\200\271D\000\200\271D\233y\262H\000\000\204B\000\000\204B\000\300\010D\000\000\204B\000\200\271D\000\200\271D\344\205\314H\000\000\204B\000\000\204B\315\314\204B\000\000\204B\000\000\204B\000\000\224B\315\314L@\000\000\204B\000\000\204B\345\020\205B\000\000\204B\000\000\204B\000\000\224BD\213\210@\000\000\204B\000\000\204B\374\351\204B\000\000\204B\000\000\204B\000\000\224B33c@\000\000\240@\000\000`A\000\000\230A\000\000pA\000\000\000\000\000\000\000\000\000\000\000\000\000\000\000\000\000\000\000\000\000\000\000\000\000\000\000\000\000\000\000\000\000\000\000@\000\000@A\000\340\206D\000\000\000@\000\000\240@\000\000\200?\000\000\200?\000\000@@\000\000\200?\000\000\200?\000\000\200?\000\000\000\000\000\000\000\000\000\000pB\000\000pB\000\000vB\000\000pB\000\000\204B\000\000\204B\000\000\020A\000\000pB\000\000pB\000\000pB\000\000pB\000\000pB\000\000pB\000\000\000\000\000\000pB\000\000pB\000\000tB\000\000pBff\203B\000\000\204B\000\000\300@\000\000XB\000\000XB\000\000dB\000\000XB\000\000\204B\000\000\204B\000\000\020B\000\000XB\000\000XB\000\000`B\000\000`B\000\000hB\000\000hB\000\000\000A\000\000XB\000\000XB\002\253bB\000\000XB33\203B\000\000\204Bj\274\273A\000\000@@\000\000\000@\000\000@@\000\000\000@\000\000\000\000\000\000\000\000\000\000\000\000\000\000\000\000\000\000\000\000\000\000\000\000\000\000\000\000\000\000\000\000\000\000\000@\000\000\000@\000\000@A\000\000\000\000\000\000\000\000\000\000\200?\000\000\200?\000\000\200?\000\000\200?\000\000\200?\000\000\000\000\000\000\000\000\000\000\000\000\000\000\204B\000\000\204B\000\000\017C\000\000\204B\000\200\335C\000\200\335C\000\322\333F\000\000\204B\000\000\204B\000@2C\000\000\214B\000\200\375C\000\200\375C@\260;G\000\000\204B\000\000\204B\301\252\036C\000\000\204B\000\200\355C\000\200\375C\200_\375F\000\000\204B\000\000\204B33\207B\000\000\204B\000\000\224B\000\000\224B\315\314LA\000\000\204B\000\000\204B\000\000\210B\000\000\204B\000\000\224B\000\000\224B\000\000\200A\000\000\204B\000\000\204BV\216\207B\000\000\204B\000\000\224B\000\000\224B\240\032GA\000\000@@\000\000\200@\000\000\200@\000\000\200@\000\000\000\000\000\000\000\000\000\000\000\000\000\000\000\000\000\000\000\000\000\000\000\000\000\000\000\000\000\000\000\000\000\000\200?\000\000\200?\000\200\274C\000\000\200?\000\000\200?\000\000\200?\000\000\200?\000\000\200?\000\000\200?\000\000\200?\000\000\200?\000\000\000\000\000\000\000\000\000\000pB\000\000pB?\225#C\000\000|B3S\262C\000@\002D\2666\276F\000\000pB\000\000\204Bh\321\277C\000\000\326Bf&\235D\000@\244D\020Y`H\000\000pB\000\000pB\272i\206C\000\000\204B3s\021D\000@\244D\315f\374G\000\000XB\000\000XB\000\000\\B\000\000XBffZB\000\000\204B\000\000@A\000\000XB\000\000XB\215\027eB\000\000XB\000\000\204B\000\000\204B\020X\373A\000\000XB\000\000XB\027Y`B\000\000XB\000\000\204B\000\000\204B%\006\255A\000\000\000A\000\000\000A\000\0000A\000\0000A\000\000\000\000\000\000\000\000\000\000\000\000\000\000\000\000\000\000\000\000\000\000\000\000\000\000\000\000\000\000\000\000\000\000\340@\000\000\300@\000\340\237D\000\000\240@\000\000\240@\000\000\200?\000\000\200?\000\000\000\000\000\000\000\000\000\000\200?\000\000\200?\000\000\000\000\000\000\000\000\000\000pB\000\000pB\000\000vB\000\000pB\000\000\204B\000\000\204B\000\000\020A\000\000pB\000\000pB\000\000pB\000\000pB\000\000pB\000\000pB\000\000\000\000\000\000pB\000\000pB\000\000tB\000\000pBff\203B\000\000\204B\000\000\300@\000\000XB\000\000XB\000\000dB\000\000XB\000\000\204B\000\000\204B\000\000\020B\000\000XB\000\000XB\000\000`B\000\000`B\000\000hB\000\000hB\000\000\000A\000\000XB\000\000XB\002\253bB\000\000XB33\203B\000\000\204Bj\274\273A\000\000@@\000\000\000@\000\000@@\000\000\000@\000\000\000\000\000\000\000\000\000\000\000\000\000\000\000\000\000\000\000\000\000\000\000\000\000\000\000\000\000\000\000\000\000\000\000@\000\000\000@\000\000@A\000\000\000\000\000\000\000\000\000\000\200?\000\000\200?\000\000\200?\000\000\200?\000\000\200?\000\000\000\000\000\000\000\000\000\000\000\000\000\000pB\000\000pB\272\t\364B\000\000\033C\000\000\033C\000\200\215Cw\350yE\000\000pB\000\000pBoR\355B\000\000pB\000\000+C\000\200\215C\024\220\203E\000\000pB\000\000pBV\216\360B\000\000\033C\000\000+C\000\200\215CP\213~E\000\000XB\000\000XB\213\354XB\000\000XB\000\000XB\000\000\204BL71@\000\000XB\000\000XB\000\000XB\000\000XB\000\000XB\000\000XB\000\000\000\000\000\000XB\000\000XB\252qXB\000\000XB\000\000XB\000\000\204B\276\237\252?\000\000\360A\000\000\340A\000\000PB\000\000`B\000\000\240@\000\000\000A\000\000\000\000\000\000\000\000\000\000\000\000\000\000\000\000\000\000\000\000\000\000\000\000\000\000\350A\000\000\340A\000\220$E\000\000\350A\000\000\330A\000\000\000\000\000\000\000\000\000\000\200?\000\000\200?\000\000\000\000\000\000\000\000\000\000\000\000\000\000\000\000\000\000pB\000\000pB\000\000\010C\000\000pB\000\300\226C\000\000\256C\000\023QF\000\000pB\000\000\201B\000\200\330C\000\200IC\232\341\263D\000\200\271D3\024\225H\000\000pB\000\000pB\315\314~C\000\000\204B\232\031\365C\000\200\271DB\032\010H\000\000XB\000\000XB\376T]B\000\000XB\000\000pB\000\000\204B\000\000\200A\000\000XB\000\000XB\000\000`B\000\000XB\315\314\202B\000\000\204B\000\000\300A\000\000XB\000\000XBff^B\000\000XB\315\314tB\000\000\204B\313\241\216A\000\000\240@\000\000\240@\000\000\000A\000\000\300@\000\000\000\000\000\000\000\000\000\000\000\000\000\000\000\000\000\000\000\000\000\000\000\000\000\000\000\000\000\000\000\000\000\000\200@\000\000\200@\000\200\375C\000\000@@\000\000@@\000\000\200?\000\000\200?\000\000\200?\000\000\000\000\000\000\200?\000\000\200?\000\000\000\000\000\000\000\000\000\000pB\000\000pB\000\000\243C\000\000\300B\000\340\246D\000\000\256D\232\325\207H\000\000pB\000\000\235B\333a\001D\000\300\002D\315\334\214D\000@\275DYRFH\000\000pB\000\000\204BR\310\351C\000\300\002D\315\254\215D\000@\275D\2772UH\000\000XB\000\000XB\000\000`B\000\000XB\315\314\202B\000\000\204B\000\000\300A\000\000XB\000\000XB\362\322ZB\000\000XB\000\000XB\000\000\204B7\211\007A\000\000XB\000\000XB\010,\\B\000\000XB\000\000XB\000\000\204B}??A\000\000\200@\000\000\340@\000\000\240@\000\000\210A\000\000\200?\000\000\000\000\000\000\000\000\000\000\000\000\000\000\000\000\000\000\000\000\000\000\000\000\000\000\000\000\000\000@@\000\000\300@\000\000\311D\000\000@@\000\0000A\000\000\200?\000\000\200?\000\000\000\000\000\000\200?\000\000\200?\000\000\200?\000\000\000\000\000\000\000\000\000\000pB\000\000pB\217b>C\000\000pBf\346 D\000\300*D\302\354SG\000\000pB\000\000vB\370\363\013D\000\000\001C\000@\275D\000@\275D\001\253\301H\000\000pB\000\000pB\177\032\305C\000\000\204B\000\200\240D\000@\275D\210,\204H\000\000XB\000\000XBNb_B\000\000XB\232\231\201B\000\000\204B\311v\242A\000\000XB\000\000XB\000\000^B\000\000XB\232\231mB\000\000\204Bff\206A\000\000XB\000\000XB\270\236^B\000\000XB\000\000pB\000\000\204B;\337\215A\000\000\340@\000\000@A\000\000@A\000\000\200A\000\000\200?\000\000\200?\000\000\000\000\000\000\000\000\000\000\000\000\000\000\000\000\000\000\000\000\000\000\000\000\000\000\300@\000\0000A\000\340\326D\000\000\200@\000\000\300@\000\000\200?\000\000\200?\000\000\200?\000\000\200?\000\000\200?\000\000\200?\000\000\000\000\000\000\000\000\000\000pB\000\000pB\000\000vB\000\000pB\000\000\204B\000\000\204B\000\000\020A\000\000pB\000\000pB\000\000pB\000\000pB\000\000pB\000\000pB\000\000\000\000\000\000pB\000\000pB\000\000tB\000\000pBff\203B\000\000\204B\000\000\300@\000\000XB\000\000XB\000\000dB\000\000XB\000\000\204B\000\000\204B\000\000\020B\000\000XB\000\000XB\000\000`B\000\000`B\000\000hB\000\000hB\000\000\000A\000\000XB\000\000XB\002\253bB\000\000XB33\203B\000\000\204Bj\274\273A\000\000@@\000\000\000@\000\000@@\000\000\000@\000\000\000\000\000\000\000\000\000\000\000\000\000\000\000\000\000\000\000\000\000\000\000\000\000\000\000\000\000\000\000\000\000\000\000@\000\000\000@\000\000@A\000\000\000\000\000\000\000\000\000\000\200?\000\000\200?\000\000\200?\000\000\200?\000\000\200?\000\000\000\000\000\000\000\000\000\000\000\000\000\000pB\000\000pB\000\000vB\000\000pB\000\000\204B\000\000\204B\000\000\020A\000\000pB\000\000pB\000\000xB\000\000pB\000\000\204B\000\000\204B\000\000@A\000\000pB\000\000pB#\333vB\000\000pB\000\000\204B\000\000\204B\321\"\tA\000\000XB\000\000XB\000\000dB\000\000XB\000\000\204B\000\000\204B\000\000\020B\000\000XB\000\000XB\000\000hB\000\000XB\000\000\204B\000\000\204B\000\000@B\000\000XB\000\000XBL\267eB\000\000XB\000\000\204B\000\000\204B\335$\tB\000\000@@\000\000\000@\000\000@@\000\000@@\000\000\000\000\000\000\200?\000\000\000\000\000\000\000\000\000\000\000\000\000\000\000\000\000\000\000\000\000\000\000\000\000\000\000@\000\000\200?\000\000@A\000\000\000\000\000\000\000\000\000\000\200?\000\000\200?\000\000\200?\000\000\200?\000\000\200?\000\000\200?\000\000\000\000\000\000\000\000\000\000pB\000\000pB\315\214\241C\000\000pB\000\200\251D\000\300\264D\331\267\213H\000\000pB\000\200\025DwB\212D\000\200\271D\000\200\271D\000\200\271D\347\347\244H\000\000pB\000\000pB\317\347LD\000@\226D\000\200\271D\000\200\271D\214(\340H\000\000XB\000\000XB\232\231YB\000\000XB\000\000XB\000\000\204B\232\231\231@\000\000XB\000\000XB\262\235\\B\000\000XB\000\000XB\000\000\204B\366(LA\000\000XB\000\000XB\022\203[B\000\000XB\000\000XB\000\000\204B\016-\036A\000\000\020A\000\0004B\000\000\350A\000\000PB\000\000\000A\000\000\300A\000\000\000\000\000\000\000\000\000\000\000\000\000\000\000\000\000\000\000\000\000\000\000\000\000\000\000A\000\000,B\000\030\320E\000\000\300@\000\000\020A\000\000\200?\000\000\200?\000\000\000\000\000\000\000\000\000\000\200?\000\000\200?\000\000\000\000\000\000\000\000\000\000pB\000\000pB\000\000pB\000\000pB\000\000pB\000\000pB\000\000\000\000\000\000pB\000\000pB\246\333\226B\000\000\204B\000\000\336B\000\000\346B;O\340C\000\000pB\000\000pB\000\000\212B\000\000pB\000\000\300B\000\000\346B\264\350\231C\000\000XB\000\000XB\000\000XB\000\000XB\000\000XB\000\000XB\000\000\000\000\000\000XB\000\000XBo\222lB\000\000XB\000\000\204B\000\000\204Bo\222$B\000\000XB\000\000XB\000\000dB\000\000XB\000\000\204B\000\000\204B\327\243\353A\000\000\000@\000\000\200@\000\000\240@\000\000\340@\000\000\200?\000\000\000\000\000\000\000\000\000\000\000\000\000\000\000\000\000\000\000\000\000\000\000\000\000\000\000\000\000\000\000@\000\000@@\000\000@A\000\000\000\000\000\000\000@\000\000\000\000\000\000\000\000\000\000\200?\000\000\200?\000\000\000\000\000\000\000\000\000\000\000\000\000\000\000\000\000\000pB\000\000pBd\333\200C\000\000\204B\000\200\024D\000\200\030D\350\021vG\000\000pB\000\000|B\232\031\226C\000\000;C\000\300-D\000\300-D\332w\233G\000\000pB\000\000pB`\265\211C\000\000\375B\000\220\031D\000\300-DD(yG\000\000XB\000\000XB#\333^B\000\000XBff~B\000\000\204Bh\221\244A\000\000XB\000\000XB\232\231aB\000\000XB\000\000\204B\000\000\204Bff\346A\000\000XB\000\000XB\000\000`B\000\000XB\000\000\204B\000\000\204BD\213\256A\000\000\240@\000\000\200@\000\000\300@\000\000\240@\000\000\000\000\000\000\000\000\000\000\000\000\000\000\000\000\000\000\000\000\000\000\000\000\000\000\000\000\000\000\000\000\000\000\200@\000\000@@\000@\257D\000\000@@\000\000@@\000\000\200?\000\000\200?\000\000\000\000\000\000\000\000\000\000\200?\000\000\200?\000\000\000\000\000\000\000\000\000\000pB\000\000pB\000\000vB\000\000pB\000\000\204B\000\000\204B\000\000\020A\000\000pB\000\000pB\000\000|B\000\000|B\000\000\204B\000\000\204B\000\000\220A\000\000pB\000\000pB\000\000xB\000\000pB\000\000\204B\000\000\204B\232\231\031A\000\000XB\000\000XB\000\000dB\000\000XB\000\000\204B\000\000\204B\000\000\020B\000\000XB\000\000XB\000\000pB\000\000pB\000\000\204B\000\000\204B\000\000\220B\000\000XB\000\000XB\000\000hB\000\000XB\000\000\204B\000\000\204B\232\231\031B\000\000@@\000\000\000@\000\000@@\000\000\000@\000\000\000\000\000\000\000\000\000\000\000\000\000\000\000\000\000\000\000\000\000\000\000\000\000\000\000\000\000\000\000\000\000\000\000@\000\000\200?\000\000@A\000\000\000\000\000\000\000\000\000\000\200?\000\000\200?\000\000\200?\000\000\200?\000\000\200?\000\000\200?\000\000\000\000\000\000\000\000\000\000pB\000\000pB\234$SC\000\000pB\000\200`D\000@\212DI\020\030H\000\000pB\000\000pB\315\314\341C\000\000\204B\000\200\201D\000\200\201D\032\370\212H\000\000pB\000\000pB\240\252\233C\000\000|B\000\360\201D\000@\212D\341\373FH\000\000XB\000\000XBL\267eB\000\000XB\000\000\204B\000\000\204B\335$\tB\000\000XB\000\000XB\232\231aB\000\000XB\000\000\204B\000\000\204Bff\346A\000\000XB\000\000XB\000\000dB\000\000XB\000\000\204B\000\000\204B\327\243\353A\000\000\200@\000\000@@\000\000\300@\000\000\240@\000\000\000\000\000\000\000\000\000\000\000\000\000\000\000\000\000\000\000\000\000\000\000\000\000\000\000\000\000\000\000\000\000\000\000@\000\000\000@\000@\204D\000\000\200?\000\000\000@\000\000\200?\000\000\200?\000\000\200?\000\000\200?\000\000\200?\000\000\200?\000\000\000\000\000\000\000\000\000\000pB\000\000pB?\025\020C\000\000pB3S\213C\000\200,Dr\234\007G\000\000pB\000\000\201B\234$\377C\000\000\335B\000@\275D\000@\275D\370\320\277H\000\000pB\000\000pBo\242\252C\000\000\204B\000`\226D\000@\275D,AxH\000\000XB\000\000XB\000\000\\B\000\000XBffZB\000\000\204B\000\000@A\000\000XB\000\000XB\264HbB\000\000XB\000\000\204B\000\000\204BH\341\320A\000\000XB\000\000XBNb_B\000\000XB\315\314\202B\000\000\204B\303\365\233A\000\000\300@\000\0000A\000\0000A\000\000`A\000\000\000@\000\000@@\000\000\000\000\000\000\000\000\000\000\000\000\000\000\000\000\000\000\000\000\000\000\000\000\000\000\240@\000\000\020A\000 \201D\000\000@@\000\000\240@\000\000\200?\000\000\200?\000\000\200?\000\000\200?\000\000\200?\000\000\200?\000\000\000\000\000\000\000\000\000\000\204B\000\000\204B\000\000\210B\000\000\204B\000\000\224B\000\000\224B\000\000\200A\000\000\204B\000\000\204B\000\000\214B\000\000\214B\000\000\224B\000\000\224B\000\000\000B\000\000\204B\000\000\204B\201U\211B\000\000\204B\000\000\224B\000\000\224B7\211\210A\000\000\204B\000\000\204B\000\000\210B\000\000\204B\000\000\224B\000\000\224B\000\000\200A\000\000\204B\000\000\204B\000\000\214B\000\000\214B\000\000\224B\000\000\224B\000\000\000B\000\000\204B\000\000\204B\201U\211B\000\000\204B\000\000\224B\000\000\224B7\211\210A\000\000@@\000\000\000@\000\000@@\000\000\000@\000\000\000\000\000\000\000\000\000\000\000\000\000\000\000\000\000\000\000\000\000\000\000\000\000\000\000\000\000\000\000\000\000\000\000\000\000\000\000\000\000\000\000\000\000\000\000\000\000\000\000\000\000\000\200?\000\000\200?\000\000\200?\000\000\200?\000\000\200?\000\000\200?\000\000\000\000\000\000\000\000\000\000pB\000\000pB\000 &C\000\000pB\000\340\367C\000@\004D\373\212\026G\000\000pB\000\000\201B\000\000\345B\000\000\204B3\363VC\000\000WC\000\254\273E\000\000pB\000\000pB\000\000\020C\000\000\204B\000\240\275C\000@\004D\355\250\271F\000\000XB\000\000XB\000\000^B\000\000XB33wB\000\000\204B\000\000\220A\000\000XB\000\000XB\000\000pB\000\000pB\000\000\204B\000\000\204B\315\314,B\000\000XB\000\000XBL\267eB\000\000XB\000\000\204B\000\000\204B\033/\375A\000\000\240@\000\000\200@\000\000\340@\000\000\300@\000\000\000\000\000\000\000\000\000\000\000\000\000\000\000\000\000\000\000\000\000\000\000\000\000\000\000\000\000\000\000\000\000\000\200@\000\000\000@\000\300XD\000\000\000@\000\000\000@\000\000\200?\000\000\200?\000\000\000\000\000\000\000\000\000\000\200?\000\000\200?\000\000\000\000\000\000\000\000\000\000pB\000\000pB\000\000vB\000\000pB\000\000\204B\000\000\204B\000\000\020A\000\000pB\000\000pB\000\000pB\000\000pB\000\000pB\000\000pB\000\000\000\000\000\000pB\000\000pB\000\000tB\000\000pBff\203B\000\000\204B\000\000\300@\000\000XB\000\000XB\000\000dB\000\000XB\000\000\204B\000\000\204B\000\000\020B\000\000XB\000\000XB\000\000`B\000\000`B\000\000hB\000\000hB\000\000\000A\000\000XB\000\000XB\002\253bB\000\000XB33\203B\000\000\204Bj\274\273A\000\000@@\000\000\000@\000\000@@\000\000\000@\000\000\000\000\000\000\000\000\000\000\000\000\000\000\000\000\000\000\000\000\000\000\000\000\000\000\000\000\000\000\000\000\000\000\000@\000\000\000@\000\000@A\000\000\000\000\000\000\000\000\000\000\200?\000\000\200?\000\000\200?\000\000\200?\000\000\200?\000\000\000\000\000\000\000\000\000\000\000\000\000\000pB\000\000pB\000\000vB\000\000pB\000\000\204B\000\000\204B\000\000\020A\000\000pB\000\000pB\000\000pB\000\000pB\000\000pB\000\000pB\000\000\000\000\000\000pB\000\000pB\000\000tB\000\000pBff\203B\000\000\204B\000\000\300@\000\000XB\000\000XB\000\000dB\000\000XB\000\000\204B\000\000\204B\000\000\020B\000\000XB\000\000XB\000\000`B\000\000`B\000\000hB\000\000hB\000\000\000A\000\000XB\000\000XB\002\253bB\000\000XB33\203B\000\000\204Bj\274\273A\000\000@@\000\000\000@\000\000@@\000\000\000@\000\000\000\000\000\000\000\000\000\000\000\000\000\000\000\000\000\000\000\000\000\000\000\000\000\000\000\000\000\000\000\000\000\000\000@\000\000\000@\000\000@A\000\000\000\000\000\000\000\000\000\000\200?\000\000\200?\000\000\200?\000\000\200?\000\000\200?\000\000\000\000\000\000\000\000\000\000\000\000\000\000pB\000\000pB\000\000vB\000\000pB\000\000\204B\000\000\204B\000\000\020A\000\000pB\000\000pB\000\000pB\000\000pB\000\000pB\000\000pB\000\000\000\000\000\000pB\000\000pB\000\000tB\000\000pBff\203B\000\000\204B\000\000\300@\000\000XB\000\000XB\000\000dB\000\000XB\000\000\204B\000\000\204B\000\000\020B\000\000XB\000\000XB\000\000`B\000\000`B\000\000hB\000\000hB\000\000\000A\000\000XB\000\000XB\002\253bB\000\000XB33\203B\000\000\204Bj\274\273A\000\000@@\000\000\000@\000\000@@\000\000\000@\000\000\000\000\000\000\000\000\000\000\000\000\000\000\000\000\000\000\000\000\000\000\000\000\000\000\000\000\000\000\000\000\000\000\000@\000\000\000@\000\000@A\000\000\000\000\000\000\000\000\000\000\200?\000\000\200?\000\000\200?\000\000\200?\000\000\200?\000\000\000\000\000\000\000\000\000\000\000\000\000\000\204B\000\000\204Bff\017C\000\000\204B\000\200\336C\000\200\336C\232+\336F\000\000\204B\000\000\204B\000@\227C\000\000\220B\000\000zD\000\000zD@0SH\000\000\204B\000\000\204Bj\034VC\000\000\204B\000\2404D\000\000zDN\345\307G\000\000\204B\000\000\204B33\207B\000\000\204B\000\000\224B\000\000\224B\315\314LA\000\000\204B\000\000\204B\000\000\212B\000\000\204B\000\000\234B\000\000\234B\000\000\020B\000\000\204B\000\000\204B\252q\210B\000\000\204B\000\000\230B\000\000\234BP\215\243A\000\000@@\000\000\200@\000\000\200@\000\000\200@\000\000\000\000\000\000\000\000\000\000\000\000\000\000\000\000\000\000\000\000\000\000\000\000\000\000\000\000\000\000\000\000\000\000\200?\000\000\200?\000\200\275C\000\000\200?\000\000\200?\000\000\200?\000\000\200?\000\000\200?\000\000\200?\000\000\200?\000\000\200?\000\000\000\000\000\000\000\000\000\000pB\000\000pBV\216\032C\000\000pB\000\300\362C\000@bD\244\257\232G\000\000pB\000\200\271D=\212\245D\000\200\271D\000\200\271D\000\200\271D\2713@H\000\000pB\000\000\201BD\253}D\000\200\271D\000\200\271D\000\200\271Dn@\325H\000\000XB\000\000XB\376T]B\000\000XB\000\000pB\000\000\204B\000\000\200A\000\000XB\000\000XB\205\353YB\000\000XB\000\000XB\000\000\204B\354Q\270@\000\000XB\000\000XB\362\322ZB\000\000XB\000\000XB\000\000\204B\213l\003A\000\000@@\000\000\300A\000\000\000A\000\000\310A\000\000\000\000\000\000\000\000\000\000\000\000\000\000\000\000\000\000\000\000\000\000\000\000\000\000\000\000\000\000\000\000\000\000\000@\000\000\270A\000@VD\000\000\200?\000\000\200?\000\000\200?\000\000\200?\000\000\000\000\000\000\000\000\000\000\200?\000\000\200?\000\000\000\000\000\000\000\000\000\000pB\000\000pB\000\000vB\000\000pB\000\000\204B\000\000\204B\000\000\020A\000\000pB\000\000pB\000\000pB\000\000pB\000\000pB\000\000pB\000\000\000\000\000\000pB\000\000pB\000\000tB\000\000pBff\203B\000\000\204B\000\000\300@\000\000XB\000\000XB\000\000dB\000\000XB\000\000\204B\000\000\204B\000\000\020B\000\000XB\000\000XB\000\000`B\000\000`B\000\000hB\000\000hB\000\000\000A\000\000XB\000\000XB\002\253bB\000\000XB33\203B\000\000\204Bj\274\273A\000\000@@\000\000\000@\000\000@@\000\000\000@\000\000\000\000\000\000\000\000\000\000\000\000\000\000\000\000\000\000\000\000\000\000\000\000\000\000\000\000\000\000\000\000\000\000\000@\000\000\000@\000\000@A\000\000\000\000\000\000\000\000\000\000\200?\000\000\200?\000\000\200?\000\000\200?\000\000\200?\000\000\000\000\000\000\000\000\000\000\000\000\000\000pB\000\000pB\000\000vB\000\000pB\000\000\204B\000\000\204B\000\000\020A\000\000pB\000\000pB\000\000pB\000\000pB\000\000pB\000\000pB\000\000\000\000\000\000pB\000\000pB\000\000tB\000\000pBff\203B\000\000\204B\000\000\300@\000\000XB\000\000XB\000\000dB\000\000XB\000\000\204B\000\000\204B\000\000\020B\000\000XB\000\000XB\000\000`B\000\000`B\000\000hB\000\000hB\000\000\000A\000\000XB\000\000XB\002\253bB\000\000XB33\203B\000\000\204Bj\274\273A\000\000@@\000\000\000@\000\000@@\000\000\000@\000\000\000\000\000\000\000\000\000\000\000\000\000\000\000\000\000\000\000\000\000\000\000\000\000\000\000\000\000\000\000\000\000\000\000@\000\000\000@\000\000@A\000\000\000\000\000\000\000\000\000\000\200?\000\000\200?\000\000\200?\000\000\200?\000\000\200?\000\000\000\000\000\000\000\000\000\000\000\000\000\000pB\000\000pB\000\200\357B\000\000pB\315\314\233C\000\000\256C%\013EF\000\000pB\000\000\201B\240*\327C\000\200AC\232\341\263D\000\200\271D\"\207\225H\000\000pB\000\000pBd\333|C\000\000\204B\000p\003D\000\200\271D:\177\022H\000\000XB\000\000XB\000\000^B\000\000XB33wB\000\000\204B\000\000\220A\000\000XB\000\000XB\000\000`B\000\000XB\315\314\202B\000\000\204B\000\000\300A\000\000XB\000\000XB#\333^B\000\000XB\000\000|B\000\000\204By\351\227A\000\000\240@\000\000\240@\000\000\340@\000\000\300@\000\000\000\000\000\000\000\000\000\000\000\000\000\000\000\000\000\000\000\000\000\000\000\000\000\000\000\000\000\000\000\000\000\000\200@\000\000\200@\000\000\370C\000\000\000@\000\000@@\000\000\200?\000\000\200?\000\000\200?\000\000\000\000\000\000\200?\000\000\200?\000\000\000\000\000\000\000\000\000\000pB\000\000pB\000\200\357B\000\000pB\315\314\233C\000\000\256C%\013EF\000\000pB\000\000\201BP\265\004D\000\200ACf\246\267D\000\200\271D\205U\305H\000\000pB\000\000pB\351\366\223C\000\000\204B\000\200tD\000\200\271Dg\363IH\000\000XB\000\000XB\000\000^B\000\000XB33wB\000\000\204B\000\000\220A\000\000XB\000\000XB\000\000`B\000\000XB\315\314\202B\000\000\204B\000\000\300A\000\000XB\000\000XB#\333^B\000\000XB\000\000|B\000\000\204By\351\227A\000\000\240@\000\000\240@\000\000\340@\000\000\300@\000\000\000\000\000\000\000\000\000\000\000\000\000\000\000\000\000\000\000\000\000\000\000\000\000\000\000\000\000\000\000\000\000\000\200@\000\000\200@\000\000\370C\000\000\000@\000\000@@\000\000\200?\000\000\200?\000\000\200?\000\000\000\000\000\000\200?\000\000\200?\000\000\000\000\000\000\000\000\000\000pB\000\000pB\000\000\201B\000\000pB\000\000\234B\000\000\234B\000\000\242B\000\000pB\000\000pB\000\000pB\000\000pB\000\000pB\000\000pB\000\000\000\000\000\000pB\000\000pB\000\000|B\000\000pB33\232B\000\000\234B\000\000XB\000\000XB\000\000XB\000\000pB\000\000XB\000\000\234B\000\000\234B\000\000\020C\000\000XB\000\000XB\000\000`B\000\000`B\000\000hB\000\000hB\000\000\000A\000\000XB\000\000XB\002\253jB\000\000XB\000\000\232B\000\000\234B\264\210\270B\000\000@@\000\000\000@\000\000@@\000\000\000@\000\000\000\000\000\000\000\000\000\000\000\000\000\000\000\000\000\000\000\000\000\000\000\000\000\000\000\000\000\000\000\000\000\000\000@\000\000\000@\000\000@A\000\000\000\000\000\000\000\000\000\000\200?\000\000\200?\000\000\200?\000\000\200?\000\000\200?\000\000\000\000\000\000\000\000\000\000\000\000\000\000pB\000\000pB\031T\270C\000\000pB3\023\254D\000\200\271D\025\356\234H\000\000pB\000\000\332Bb\220\347C\000\000@C\000\200\257D\000\200\257Da\334\213H\000\000pB\000\000pB\ng\323C\000\000\332B\000\200\257D\000\200\271D\326`\222H\000\000XB\000\000XB\000\000XB\000\000XB\000\000XB\000\000XB\000\000\000\000\000\000XB\000\000XB\000\000XB\000\000XB\000\000XB\000\000XB\000\000\000\000\000\000XB\000\000XB\000\000XB\000\000XB\000\000XB\000\000XB\000\000\000\000\000\000@A\000\000(B\000\000\014B\000\000<B\000\000\240@\000\000@@\000\000\000\000\000\000\000\000\000\000\000\000\000\000\000\000\000\000\000\000\000\000\000\000\000\000@A\000\000(B\000X\316E\000\000\340@\000\000(B\000\000\000\000\000\000\000\000\000\000\000\000\000\000\000\000\000\000\000\000\000\000\000\000\000\000\000\000\000\000\000\000\000\000pB\000\000pB\000\000vB\000\000pB\000\000\204B\000\000\204B\000\000\020A\000\000pB\000\000pB\000\000|B\000\000|B\000\000\204B\000\000\204B\000\000\220A\000\000pB\000\000pB\000\000xB\000\000pB\000\000\204B\000\000\204B\232\231\031A\000\000XB\000\000XB\000\000dB\000\000XB\000\000\204B\000\000\204B\000\000\020B\000\000XB\000\000XB\000\000pB\000\000pB\000\000\204B\000\000\204B\000\000\220B\000\000XB\000\000XB\000\000hB\000\000XB\000\000\204B\000\000\204B\232\231\031B\000\000@@\000\000\000@\000\000@@\000\000\000@\000\000\000\000\000\000\000\000\000\000\000\000\000\000\000\000\000\000\000\000\000\000\000\000\000\000\000\000\000\000\000\000\000\000\000@\000\000\200?\000\000@A\000\000\000\000\000\000\000\000\000\000\200?\000\000\200?\000\000\200?\000\000\200?\000\000\200?\000\000\200?\000\000\000\000\000\000\000\000\000\000pB\000\000pB\301\252fC\000\000pB\000\000\023D\000@ D\240[\200G\000\000pB\000\000pB\260\252\027D\000@\022D\000\200\271D\000\200\271D8\255\254H\000\000pB\000\000pB`U\321C\000\000\204Bf&jD\000\200\271DZDeH\000\000XB\000\000XB\376T]B\000\000XB\000\000pB\000\000\204B\000\000\200A\000\000XB\000\000XB\376T]B\000\000XB\000\000pB\000\000\204B\000\000\200A\000\000XB\000\000XB\376T]B\000\000XB33_B\000\000\204B\252\361pA\000\000\300@\000\000\340@\000\000\000A\000\000\020A\000\000\000\000\000\000\000\000\000\000\000\000\000\000\000\000\000\000\000\000\000\000\000\000\000\000\000\000\000\000\000\000\000\000\240@\000\000\300@\000\000\303D\000\000@@\000\000@@\000\000\200?\000\000\200?\000\000\200?\000\000\200?\000\000\200?\000\000\200?\000\000\000\000\000\000\000\000\000\000pB\000\000pB\240\352\206C\000\000pB\315T\234D\000 \244D>\r\177H\000\000pB\000\000pB`\225\242C\000\000|B3\373\264D\000@\275D\322\357\246H\000\000pB\000\000pB\000\300\224C\000\000pB\232a\245D\000@\275D A\206H\000\000XB\000\000XB\000\000`B\000\000XB\315\314\202B\000\000\204B\000\000\300A\000\000XB\000\000XB\000\000`B\000\000XB\315\314\202B\000\000\204B\000\000\300A\000\000XB\000\000XB\000\000`B\000\000XB\000\000\204B\000\000\204BD\213\256A\000\000@@\000\000\240@\000\000\240@\000\000\300@\000\000\200?\000\000\000\000\000\000\000\000\000\000\000\000\000\000\000\000\000\000\000\000\000\000\000\000\000\000\000\000\000\000\000@\000\000\200@\000 \236D\000\000\200?\000\000\200?\000\000\200?\000\000\200?\000\000\200?\000\000\200?\000\000\200?\000\000\200?\000\000\000\000\000\000\000\000\000\000pB\000\000pB\000\000vB\000\000pB\000\000\204B\000\000\204B\000\000\020A\000\000pB\000\000pB\000\000pB\000\000pB\000\000pB\000\000pB\000\000\000\000\000\000pB\000\000pB\000\000tB\000\000pBff\203B\000\000\204B\000\000\300@\000\000XB\000\000XB\000\000dB\000\000XB\000\000\204B\000\000\204B\000\000\020B\000\000XB\000\000XB\000\000`B\000\000`B\000\000hB\000\000hB\000\000\000A\000\000XB\000\000XB\002\253bB\000\000XB33\203B\000\000\204Bj\274\273A\000\000@@\000\000\000@\000\000@@\000\000\000@\000\000\000\000\000\000\000\000\000\000\000\000\000\000\000\000\000\000\000\000\000\000\000\000\000\000\000\000\000\000\000\000\000\000\000@\000\000\000@\000\000@A\000\000\000\000\000\000\000\000\000\000\200?\000\000\200?\000\000\200?\000\000\200?\000\000\200?\000\000\000\000\000\000\000\000\000\000\000\000\000\000pB\000\000pB\000\000vB\000\000pB\000\000\204B\000\000\204B\000\000\020A\000\000pB\000\000pB\000\000pB\000\000pB\000\000pB\000\000pB\000\000\000\000\000\000pB\000\000pB\000\000tB\000\000pBff\203B\000\000\204B\000\000\300@\000\000XB\000\000XB\000\000dB\000\000XB\000\000\204B\000\000\204B\000\000\020B\000\000XB\000\000XB\000\000`B\000\000`B\000\000hB\000\000hB\000\000\000A\000\000XB\000\000XB\002\253bB\000\000XB33\203B\000\000\204Bj\274\273A\000\000@@\000\000\000@\000\000@@\000\000\000@\000\000\000\000\000\000\000\000\000\000\000\000\000\000\000\000\000\000\000\000\000\000\000\000\000\000\000\000\000\000\000\000\000\000\000@\000\000\000@\000\000@A\000\000\000\000\000\000\000\000\000\000\200?\000\000\200?\000\000\200?\000\000\200?\000\000\200?\000\000\000\000\000\000\000\000\000\000\000\000\000\000pB\000\000pB\000\200\350C\000\000|B\000@\216D\000@\216D\000\247\227H\000\000pB\000\000pB`\225\232C\000\000\204B\000\360HD\000\000ID>\t\016H\000\000pB\000\000pBd\033\307C\000\000\204B\000@\216D\000@\216D\2373`H\000\000XB\000\000XB\000\000^B\000\000XB33wB\000\000\204B\000\000\220A\000\000XB\000\000XB\000\000hB\000\000XB\000\000\204B\000\000\204B\232\231\031B\000\000XB\000\000XB\264HbB\000\000XB\000\000\204B\000\000\204BH\341\320A\000\000\240@\000\000\200@\000\000\340@\000\000\300@\000\000\000\000\000\000\000\000\000\000\000\000\000\000\000\000\000\000\000\000\000\000\000\000\000\000\000\000\000\000\000\000\000\000\200@\000\000\000@\000@\010E\000\000@@\000\000\000@\000\000\200?\000\000\200?\000\000\000\000\000\000\000\000\000\000\200?\000\000\200?\000\000\000\000\000\000\000\000\000\000pB\000\000pB\234\244\345C\000\000\204Bf&\267D\000\200\271D\235A\332H\000\000pB\000\000pBff\031D\000\000\204B\000\000\267D\000\000\267D\255X\013I\000\000pB\000\000pBP\345\002D\000\000\204B\000 \267D\000\200\271D\210y\337H\000\000XB\000\000XB#\333^B\000\000XBff~B\000\000\204Bh\221\244A\000\000XB\000\000XB\232\231aB\000\000XB\000\000\204B\000\000\204Bff\346A\000\000XB\000\000XB\000\000`B\000\000XB\000\000\204B\000\000\204BD\213\256A\000\000\240@\000\000@@\000\000\300@\000\000\240@\000\000\000\000\000\000\200?\000\000\000\000\000\000\000\000\000\000\000\000\000\000\000\000\000\000\000\000\000\000\000\000\000\000\200@\000\000\000@\000`\271D\000\000\000@\000\000\000@\000\000\200?\000\000\200?\000\000\000\000\000\000\000\000\000\000\200?\000\000\200?\000\000\000\000\000\000\000\000\000\000pB\000\000pB\000\000\201B\000\000pB\000\000\234B\000\000\234B\000\000\242B\000\000pB\000\000pB\000\000pB\000\000pB\000\000pB\000\000pB\000\000\000\000\000\000pB\000\000pB\000\000|B\000\000pB33\232B\000\000\234B\000\000XB\000\000XB\000\000XB\000\000pB\000\000XB\000\000\234B\000\000\234B\000\000\020C\000\000XB\000\000XB\000\000`B\000\000`B\000\000hB\000\000hB\000\000\000A\000\000XB\000\000XB\002\253jB\000\000XB\000\000\232B\000\000\234B\264\210\270B\000\000@@\000\000\000@\000\000@@\000\000\000@\000\000\000\000\000\000\000\000\000\000\000\000\000\000\000\000\000\000\000\000\000\000\000\000\000\000\000\000\000\000\000\000\000\000\000@\000\000\000@\000\000@A\000\000\000\000\000\000\000\000\000\000\200?\000\000\200?\000\000\200?\000\000\200?\000\000\200?\000\000\000\000\000\000\000\000\000\000\000\000\000\000pB\000\000pB\000\000pB\000\000pB\000\000pB\000\000pB\000\000\000\000\000\000pB\000\000pBo\222\200B\000\000\204B\000\000\204B\000\000\204B\321\"\tA\000\000pB\000\000pBo\222xB\000\000pB\000\000\204B\000\000\204B\177j\016A\000\000XB\000\000XB\000\000XB\000\000XB\000\000XB\000\000XB\000\000\000\000\000\000XB\000\000XB\264HzB\000\000\204B\000\000\204B\000\000\204B\335$\tB\000\000XB\000\000XB\335$iB\000\000XB\000\000\204B\000\000\204B\177j\016B\000\000\000@\000\000\000@\000\000\340@\000\000\300@\000\000\000\000\000\000\000\000\000\000\000\000\000\000\000\000\000\000\000\000\000\000\000\000\000\000\000\000\000\000\000\000\000\000\000@\000\000\200?\000\000@A\000\000\000\000\000\000\000\000\000\000\000\000\000\000\000\000\000\000\200?\000\000\200?\000\000\000\000\000\000\000\000\000\000\000\000\000\000\000\000\000\000pB\000\000pB\000\000pB\000\000pB\000\000pB\000\000pB\000\000\000\000\000\000pB\000\000pB\000\000\232B\000\000\204B\000\000\344B\000\000\346Bff\001D\000\000pB\000\000pB\307\213\212B\000\000pB\000\000\306B\000\000\346B\033\317\250C\000\000XB\000\000XB\000\000XB\000\000XB\000\000XB\000\000XB\000\000\000\000\000\000XB\000\000XB\000\000hB\000\000XB\000\000\204B\000\000\204B\232\231\031B\000\000XB\000\000XB^\272`B\000\000XB\000\000\204B\000\000\204B\022\203\274A\000\000\000@\000\000\200@\000\000\240@\000\000\300@\000\000\000@\000\000\000\000\000\000\000\000\000\000\000\000\000\000\000\000\000\000\000\000\000\000\000\000\000\000\000\000\000\000\000@\000\000@@\000\000@A\000\000\000\000\000\000\000@\000\000\000\000\000\000\000\000\000\000\200?\000\000\200?\000\000\000\000\000\000\000\000\000\000\000\000\000\000\000\000\000\000pB\000\000pB\000\000pB\000\000pB\000\000pB\000\000pB\000\000\000\000\000\000pB\000\000pB\000\000xB\000\000pB\000\000\204B\000\000\204B\000\000@A\000\000pB\000\000pB\000\000tB\000\000pBff\203B\000\000\204B\000\000\300@\000\000XB\000\000XB\000\000XB\000\000XB\000\000XB\000\000XB\000\000\000\000\000\000XB\000\000XB\000\000hB\000\000XB\000\000\204B\000\000\204B\000\000@B\000\000XB\000\000XB\000\000`B\000\000XB\315\314\202B\000\000\204B\000\000\300A\000\000\000@\000\000\000@\000\000@@\000\000@@\000\000\200?\000\000\000\000\000\000\000\000\000\000\000\000\000\000\000\000\000\000\000\000\000\000\000\000\000\000\000\000\000\000\000@\000\000\200?\000\000@A\000\000\000\000\000\000\000\000\000\000\000\000\000\000\000\000\000\000\200?\000\000\200?\000\000\000\000\000\000\000\000\000\000\000\000\000\000\000\000\000\000pB\000\000pB33OC\000\000pB\000\200CD\000\200CD\232\272\311G\000\000pB\000\000pB\000\200\032C\000\000pB\000\000\333C\000\000\333C\000\211\013G\000\000pB\000\000pB+\3077C\000\000pB\000\200\030D\000\200CD\271\210\200G\000\000XB\000\000XB\000\000hB\000\000XB\000\000\224B\000\000\224B\000\000\240B\000\000XB\000\000XB\000\000\\B\000\000XB\000\000hB\000\000hB\000\000\200@\000\000XB\000\000XB\002\253bB\000\000XB\000\000\204B\000\000\224B\000\0000B\000\000@@\000\000\200@\000\000\200@\000\000\200@\000\000\000\000\000\000\000\000\000\000\000\000\000\000\000\000\000\000\000\000\000\000\000\000\000\000\000\000\000\000\000\000\000\000\000@\000\000\200@\000\2007D\000\000\200?\000\000\200?\000\000\200?\000\000\200?\000\000\200?\000\000\200?\000\000\200?\000\000\000\000\000\000\000\000\000\000\000\000\000\000\204B\000\000\204Bff\017C\000\000\204B\000\200\336C\000\200\336C\232+\336F\000\000\204B\000\000\204B\000\200\227C\000\000\220B\000\200zD\000\200zD\000\031TH\000\000\204B\000\000\204B?UVC\000\000\204B\000\3404D\000\200zD\000\252\310G\000\000\204B\000\000\204B33\207B\000\000\204B\000\000\224B\000\000\224B\315\314LA\000\000\204B\000\000\204B\000\000\212B\000\000\204B\000\000\234B\000\000\234B\000\000\020B\000\000\204B\000\000\204B\252q\210B\000\000\204B\000\000\230B\000\000\234BP\215\243A\000\000@@\000\000\200@\000\000\200@\000\000\200@\000\000\000\000\000\000\000\000\000\000\000\000\000\000\000\000\000\000\000\000\000\000\000\000\000\000\000\000\000\000\000\000\000\000\200?\000\000\200?\000\200\275C\000\000\200?\000\000\200?\000\000\200?\000\000\200?\000\000\200?\000\000\200?\000\000\200?\000\000\200?\000\000\000\000\000\000\000\000\000\000pB\000\000pB\000\000vB\000\000pB\000\000\204B\000\000\204B\000\000\020A\000\000pB\000\000pB\000\000pB\000\000pB\000\000pB\000\000pB\000\000\000\000\000\000pB\000\000pB\000\000tB\000\000pBff\203B\000\000\204B\000\000\300@\000\000XB\000\000XB\000\000dB\000\000XB\000\000\204B\000\000\204B\000\000\020B\000\000XB\000\000XB\000\000`B\000\000`B\000\000hB\000\000hB\000\000\000A\000\000XB\000\000XB\002\253bB\000\000XB33\203B\000\000\204Bj\274\273A\000\000@@\000\000\000@\000\000@@\000\000\000@\000\000\000\000\000\000\000\000\000\000\000\000\000\000\000\000\000\000\000\000\000\000\000\000\000\000\000\000\000\000\000\000\000\000\000@\000\000\000@\000\000@A\000\000\000\000\000\000\000\000\000\000\200?\000\000\200?\000\000\200?\000\000\200?\000\000\200?\000\000\000\000\000\000\000\000\000\000\000\000\000\000pB\000\000pB\000\000vB\000\000pB\000\000\204B\000\000\204B\000\000\020A\000\000pB\000\000pB\000\000pB\000\000pB\000\000pB\000\000pB\000\000\000\000\000\000pB\000\000pB\000\000tB\000\000pBff\203B\000\000\204B\000\000\300@\000\000XB\000\000XB\000\000dB\000\000XB\000\000\204B\000\000\204B\000\000\020B\000\000XB\000\000XB\000\000`B\000\000`B\000\000hB\000\000hB\000\000\000A\000\000XB\000\000XB\002\253bB\000\000XB33\203B\000\000\204Bj\274\273A\000\000@@\000\000\000@\000\000@@\000\000\000@\000\000\000\000\000\000\000\000\000\000\000\000\000\000\000\000\000\000\000\000\000\000\000\000\000\000\000\000\000\000\000\000\000\000\000@\000\000\000@\000\000@A\000\000\000\000\000\000\000\000\000\000\200?\000\000\200?\000\000\200?\000\000\200?\000\000\200?\000\000\000\000\000\000\000\000\000\000\000\000\000\000pB\000\000pB\232\031\343C\000\000\270B\000\200\271D\000\200\271DJ\002\312H\000\000pB\000\000pB\201U\354B\000\000\204B\000\000fC\000\000fC\303_\325E\000\000pB\000\000pB\016m\230C\000\000\204Bf&\232D\000\200\271D\334\244xH\000\000XB\000\000XB33[B\000\000XB\000\000XB\000\000\204B\232\231\031A\000\000XB\000\000XB\000\000dB\000\000XB\000\000\204B\000\000\204B\327\243\353A\000\000XB\000\000XB\254\034_B\000\000XBff~B\000\000\204B\333\371\226A\000\0000A\000\000\300@\000\000`A\000\000@A\000\000\000@\000\000@@\000\000\000\000\000\000\000\000\000\000\000\000\000\000\000\000\000\000\000\000\000\000\000\000\000\000 A\000\000\200@\000\360BE\000\000\200@\000\000\200@\000\000\200?\000\000\200?\000\000\000\000\000\000\000\000\000\000\200?\000\000\200?\000\000\000\000\000\000\000\000\000\000pB\000\000pB\000\200\rC\000\000pB\232\311\001D\000\300\007DM&\027G\000\000pB\000\000vB\000\270aD\000\220\241D\000\200\271D\000\200\271D\r\356\364H\000\000pB\000\000pB\213$\020D\000\000\204B\000\200\271D\000\200\271D\253\315\325H\000\000XB\000\000XB\000\000`B\000\000XB\315\314\202B\000\000\204B\000\000\300A\000\000XB\000\000XB\000\000^B\000\000XB33wB\000\000\204B\000\000\220A\000\000XB\000\000XB#\333^B\000\000XB\000\000|B\000\000\204By\351\227A\000\000\200@\000\000\340@\000\000\240@\000\000\000A\000\000\000\000\000\000\000\000\000\000\000\000\000\000\000\000\000\000\000\000\000\000\000\000\000\000\000\000\000\000\000\000\000\000@@\000\000\300@\000\200\372C\000\000\200?\000\000\200?\000\000\200?\000\000\200?\000\000\200?\000\000\200?\000\000\200?\000\000\200?\000\000\000\000\000\000\000\000\000\000pB\000\000pB\000@\036C\000\000|B\000\200\337C\000\200\337C@\310\020G\000\000pB\000\000|BffPD\000@\206D\000\200\271D\000\200\271DZO\377H\000\000pB\000\000pBj\\\005D\000\000\204B\000\200\271D\000\200\271D\311M\304H\000\000XB\000\000XB\000\000dB\000\000XB\000\000\204B\000\000\204B\000\000\020B\000\000XB\000\000XB\232\231aB\000\000XB\000\000\204B\000\000\204Bff\346A\000\000XB\000\000XB\002\253bB\000\000XB\000\000\204B\000\000\204B\000\000\340A\000\000@@\000\000\200@\000\000@@\000\000\240@\000\000\000\000\000\000@@\000\000\000\000\000\000\000\000\000\000\000\000\000\000\000\000\000\000\000\000\000\000\000\000\000\000\000@\000\000@@\000\000@A\000\000\200?\000\000\200?\000\000\200?\000\000\200?\000\000\000\000\000\000\000\000\000\000\200?\000\000\200?\000\000\000\000\000\000\000\000\000\000pB\000\000pB\000\000pB\000\000pB\000\000pB\000\000pB\000\000\000\000\000\000pB\000\000pB\000\000\245B\000\000\233B\000\000\346B\000\000\346B\260j9D\000\000pB\000\000pB\000\000\226B\000\000pB\000\000\344B\000\000\346B\000\000\021D\000\000XB\000\000XB\000\000XB\000\000XB\000\000XB\000\000XB\000\000\000\000\000\000XB\000\000XB\000\000XB\000\000XB\000\000XB\000\000XB\000\000\000\000\000\000XB\000\000XB\000\000XB\000\000XB\000\000XB\000\000XB\000\000\000\000\000\000\200?\000\000\200@\000\000\000@\000\000\200@\000\000\200?\000\000\000\000\000\000\000\000\000\000\000\000\000\000\000\000\000\000\000\000\000\000\000\000\000\000\000\000\000\000\200?\000\000\200@\000\000\300@\000\000\000\000\000\000\000@\000\000\000\000\000\000\000\000\000\000\200?\000\000\200?\000\000\000\000\000\000\000\000\000\000\000\000\000\000\000\000\000\000pB\000\000pB\000\000pB\000\000pB\000\000pB\000\000pB\000\000\000\000\000\000pB\000\000|B\177\252\222B\000\000\204B\000\000\322B\000\000\346B\000\340\260C\000\000pB\000\000pB\000\000\207B\000\000pB\232\031\236B\000\000\346B?UkC\000\000XB\000\000XB\000\000XB\000\000XB\000\000XB\000\000XB\000\000\000\000\000\000XB\000\000XB\002\253rB\000\000\204B\000\000\204B\000\000\204B\000\000 B\000\000XB\000\000XB\000\000gB\000\000XB\000\000\204B\000\000\204B\000\000\004B\000\000\000@\000\000\200@\000\000\340@\000\000\020A\000\000\200?\000\000\000\000\000\000\000\000\000\000\000\000\000\000\000\000\000\000\000\000\000\000\000\000\000\000\000\000\000\000\000@\000\000@@\000\000@A\000\000\000\000\000\000\000@\000\000\000\000\000\000\000\000\000\000\200?\000\000\200?\000\000\000\000\000\000\000\000\000\000\000\000\000\000\000\000\000\000pB\000\000pB\000\000vB\000\000pB\000\000\204B\000\000\204B\000\000\020A\000\000pB\000\000pB\000\000pB\000\000pB\000\000pB\000\000pB\000\000\000\000\000\000pB\000\000pB\000\000tB\000\000pBff\203B\000\000\204B\000\000\300@\000\000XB\000\000XB\000\000dB\000\000XB\000\000\204B\000\000\204B\000\000\020B\000\000XB\000\000XB\000\000`B\000\000`B\000\000hB\000\000hB\000\000\000A\000\000XB\000\000XB\002\253bB\000\000XB33\203B\000\000\204Bj\274\273A\000\000@@\000\000\000@\000\000@@\000\000\000@\000\000\200?\000\000\000\000\000\000\000\000\000\000\000\000\000\000\000\000\000\000\000\000\000\000\000\000\000\000\000\000\000\000\000@\000\000\000@\000\000@A\000\000\000\000\000\000\000\000\000\000\200?\000\000\200?\000\000\200?\000\000\200?\000\000\200?\000\000\000\000\000\000\000\000\000\000\000\000\000\000pB\000\000pB\000\000vB\000\000pB\000\000\204B\000\000\204B\000\000\020A\000\000pB\000\000pB\000\000|B\000\000|B\000\000\204B\000\000\204B\000\000\220A\000\000pB\000\000pB\000\000xB\000\000pB\000\000\204B\000\000\204B\232\231\031A\000\000XB\000\000XB\000\000dB\000\000XB\000\000\204B\000\000\204B\000\000\020B\000\000XB\000\000XB\000\000pB\000\000pB\000\000\204B\000\000\204B\000\000\220B\000\000XB\000\000XB\000\000hB\000\000XB\000\000\204B\000\000\204B\232\231\031B\000\000@@\000\000\000@\000\000@@\000\000\000@\000\000\000\000\000\000\000\000\000\000\000\000\000\000\000\000\000\000\000\000\000\000\000\000\000\000\000\000\000\000\000\000\000\000\000@\000\000\200?\000\000@A\000\000\000\000\000\000\000\000\000\000\200?\000\000\200?\000\000\200?\000\000\200?\000\000\200?\000\000\200?\000\000\000\000\000\000\000\000\000\000pB\000\000pB\362\302\272C\000\000|B\000\240rD\000\200\271D\344:?H\000\000pB\000\000\256B\256\347VC\000\000\342Bf\246\222C\000\200\271D\331\211\205G\000\000pB\000\000pBm\007\224C\000\000\325B\315\374oD\000\200\271D[(\007H\000\000XB\000\000XB\024.ZB\000\000XB\000\000XB\000\000\204Bu\223\314@\000\000XB\000\000XB#\333^B\000\000XBffrB\000\000\204B\006\201\220A\000\000XB\000\000XB\311v\\B\000\000XB\000\000XB\000\000\204B\010\254DA\000\000\270A\000\000\014B\000\000,B\000\000(B\000\000\000\000\000\000\200?\000\000\000\000\000\000\000\000\000\000\000\000\000\000\000\000\000\000\000\000\000\000\000\000\000\000\260A\000\000\004B\000p0F\000\000\230A\000\000\004B\000\000\200?\000\000\200?\000\000\000\000\000\000\000\000\000\000\200?\000\000\200?\000\000\000\000\000\000\000\000\000\000pB\000\000pB\000\000vB\000\000pB\000\000\204B\000\000\204B\000\000\020A\000\000pB\000\000pB\000\000pB\000\000pB\000\000pB\000\000pB\000\000\000\000\000\000pB\000\000pB\000\000tB\000\000pBff\203B\000\000\204B\000\000\300@\000\000XB\000\000XB\000\000dB\000\000XB\000\000\204B\000\000\204B\000\000\020B\000\000XB\000\000XB\000\000`B\000\000`B\000\000hB\000\000hB\000\000\000A\000\000XB\000\000XB\002\253bB\000\000XB33\203B\000\000\204Bj\274\273A\000\000@@\000\000\000@\000\000@@\000\000\000@\000\000\000\000\000\000\000\000\000\000\000\000\000\000\000\000\000\000\000\000\000\000\000\000\000\000\000\000\000\000\000\000\000\000\000@\000\000\000@\000\000@A\000\000\000\000\000\000\000\000\000\000\200?\000\000\200?\000\000\200?\000\000\200?\000\000\200?\000\000\000\000\000\000\000\000\000\000\000\000\000\000pB\000\000pB#[\240C\000\000pB\000\000\224D\000\000\270D\027\251sH\000\000pB\000\300`D;\033\213D\000`\261D\000`\261D\000\200\271D\314<\210H\000\000pB\000\000pB\217\362GD\000`\223D\000`\261D\000\200\271D\010s\313H\000\000XB\000\000XB^\272XB\000\000XB\000\000XB\000\000\204B\343\245\013@\000\000XB\000\000XB\333yXB\000\000XB\000\000XB\000\000\204B+\207\266?\000\000XB\000\000XBu\223XB\000\000XB\000\000XB\000\000\204BZd\333?\000\000\220A\000\000\266B\000\000\202B\000\000\312B\000\000\000\000\000\000\000@\000\000\000\000\000\000\000\000\000\000\000\000\000\000\000\000\000\000\000\000\000\000\000\000\000\000\210A\000\000\264B\000<gF\000\000\200A\000\000\244B\000\000\200?\000\000\200?\000\000\000\000\000\000\000\000\000\000\200?\000\000\200?\000\000\000\000\000\000\000\000\000\000pB\000\000pBsh\227B\000\000\266B\000\000\266B\000\000\266B\022\303oC\000\000pB\000\000\266B\\\017\265B\000\000\266B\000\000\266B\000\000\266B\333\371hA\000\000pB\000\000pB\335$\241B\000\000\266B\000\000\266B\000\000\266B\223\030VC\000\000XB\000\000XBF\266XB\000\000XB\000\000XB\000\000\204B\356|\007@\000\000XB\000\000XB\000\000XB\000\000XB\000\000XB\000\000XB\000\000\000\000\000\000XB\000\000XB\333yXB\000\000XB\000\000XB\000\000\204B+\207\266?\000\000\202B\000\000\200B\000\000\007C\000\000\204B\000\000\200@\000\000\000\000\000\000\000\000\000\000\000\000\000\000\000\000\000\000\000\000\000\000\000\000\000\000\000\000\000\000\202B\000\000\200B\000`\366D\000\000\210B\000\000\202B\000\000\000\000\000\000\000\000\000\000\200?\000\000\200?\000\000\000\000\000\000\000\000\000\000\000\000\000\000\000\000\000\000pB\000\000pBf\346cC\000\000pBf\3260D\000@\275D\006\275KH\000\000pB\000\000pB\301\252\026C\000\000\204B\000\200\345C\000\200\345C\200\313\356F\000\000pB\000\000pB\345P?C\000\000pB\000\200\345C\000@\275DHV\351G\000\000XB\000\000XB\232\231aB\000\000XB\000\000\204B\000\000\204B\315\314\314A\000\000XB\000\000XB\000\000hB\000\000XB\000\000\204B\000\000\204B\000\000\020B\000\000XB\000\000XB\313\241dB\000\000XB\000\000\204B\000\000\204B\301\312\353A\000\000\240@\000\000\200@\000\000\020A\000\000\020A\000\000\200?\000\000\000\000\000\000\000\000\000\000\000\000\000\000\000\000\000\000\000\000\000\000\000\000\000\000\000\000\000\000@@\000\000\000@\000\240\322D\000\000\200?\000\000\000@\000\000\200?\000\000\200?\000\000\200?\000\000\200?\000\000\200?\000\000\200?\000\000\000\000\000\000\000\000\000\000\204B\000\000\204Bw\276tC\000\000\204B\000\000\250C\000\200\271D\177\035CH\000\000\204B\000\000\357BX\351dD\000\000\261D\000\000\261D\000\000\261D\374\263\272H\000\000\204B\000\000\204BP\r\017D\000\000\316B\000\000\261D\000\200\271DPt\303H\000\000\204B\000\000\204B\000\000\204B\000\000\204B\000\000\204B\000\000\204B\000\000\000\000\000\000\204B\000\000\204B\000\000\204B\000\000\204B\000\000\204B\000\000\204B\000\000\000\000\000\000\204B\000\000\204B\000\000\204B\000\000\204B\000\000\204B\000\000\204B\000\000\000\000\000\000\240A\000\000\206B\000\000\254B\000\000\244B\000\000\300@\000\000@A\000\000\000\000\000\000\000\000\000\000\000\000\000\000\000\000\000\000\000\000\000\000\000\000\000\000pA\000\000\206B\000\220\027F\000\000PA\000\000\206B\000\000\000\000\000\000\000\000\000\000\000\000\000\000\000\000\000\000\000\000\000\000\000\000\000\000\000\000\000\000\000\000\000\000pB\000\000pB\000\000vB\000\000pB\000\000\204B\000\000\204B\000\000\020A\000\000pB\000\000pB\000\000pB\000\000pB\000\000pB\000\000pB\000\000\000\000\000\000pB\000\000pB\000\000tB\000\000pBff\203B\000\000\204B\000\000\300@\000\000XB\000\000XB\000\000dB\000\000XB\000\000\204B\000\000\204B\000\000\020B\000\000XB\000\000XB\000\000`B\000\000`B\000\000hB\000\000hB\000\000\000A\000\000XB\000\000XB\002\253bB\000\000XB33\203B\000\000\204Bj\274\273A\000\000@@\000\000\000@\000\000@@\000\000\000@\000\000\000\000\000\000\000\000\000\000\000\000\000\000\000\000\000\000\000\000\000\000\000\000\000\000\000\000\000\000\000\000\000\000\000@\000\000\000@\000\000@A\000\000\000\000\000\000\000\000\000\000\200?\000\000\200?\000\000\200?\000\000\200?\000\000\200?\000\000\000\000\000\000\000\000\000\000\000\000\000\000pB\000\000pB\000\000vB\000\000pB\000\000\204B\000\000\204B\000\000\020A\000\000pB\000\000pB\000\000xB\000\000pB\000\000\204B\000\000\204B\000\000@A\000\000pB\000\000pB#\333vB\000\000pB\000\000\204B\000\000\204B\321\"\tA\000\000XB\000\000XB\000\000dB\000\000XB\000\000\204B\000\000\204B\000\000\020B\000\000XB\000\000XB\000\000hB\000\000XB\000\000\204B\000\000\204B\000\000@B\000\000XB\000\000XBL\267eB\000\000XB\000\000\204B\000\000\204B\335$\tB\000\000@@\000\000\000@\000\000@@\000\000@@\000\000\000\000\000\000\200?\000\000\000\000\000\000\000\000\000\000\000\000\000\000\000\000\000\000\000\000\000\000\000\000\000\000\000@\000\000\200?\000\000@A\000\000\000\000\000\000\000\000\000\000\200?\000\000\200?\000\000\200?\000\000\200?\000\000\200?\000\000\200?\000\000\000\000\000\000\000\000\000\000pB\000\000pB\000\000vB\000\000pB\000\000\204B\000\000\204B\000\000\020A\000\000pB\000\000pB\000\000pB\000\000pB\000\000pB\000\000pB\000\000\000\000\000\000pB\000\000pB\000\000tB\000\000pBff\203B\000\000\204B\000\000\300@\000\000XB\000\000XB\000\000dB\000\000XB\000\000\204B\000\000\204B\000\000\020B\000\000XB\000\000XB\000\000`B\000\000`B\000\000hB\000\000hB\000\000\000A\000\000XB\000\000XB\002\253bB\000\000XB33\203B\000\000\204Bj\274\273A\000\000@@\000\000\000@\000\000@@\000\000\000@\000\000\000\000\000\000\000\000\000\000\000\000\000\000\000\000\000\000\000\000\000\000\000\000\000\000\000\000\000\000\000\000\000\000\000@\000\000\000@\000\000@A\000\000\000\000\000\000\000\000\000\000\200?\000\000\200?\000\000\200?\000\000\200?\000\000\200?\000\000\000\000\000\000\000\000\000\000\000\000\000\000pB\000\000pB\232\231yB\000\000pB\000\000\204B\000\000\204B\315\314,A\000\000pB\000\000pB\000\000\200B\000\000\204B\000\000\204B\000\000\204B\000\000@A\000\000pB\000\000pB\000\000|B\000\000|B\000\000\204B\000\000\204Bu\223$A\000\000XB\000\000XB33kB\000\000XB\000\000\204B\000\000\204B\315\314,B\000\000XB\000\000XB\000\000xB\000\000\204B\000\000\204B\000\000\204B\000\000@B\000\000XB\000\000XB\000\000pB\000\000pB\000\000\204B\000\000\204Bo\222$B\000\000@@\000\000\000@\000\000\200@\000\000@@\000\000\000\000\000\000\000\000\000\000\000\000\000\000\000\000\000\000\000\000\000\000\000\000\000\000\000\000\000\000\000\000\000\000\200?\000\000\200?\000\000\300@\000\000\000\000\000\000\000\000\000\000\200?\000\000\000@\000\000\200?\000\000\200?\000\000\200?\000\000\000@\000\000\000\000\000\000\000\000\000\000pB\000\000pBZ$\322B\000\000pB\000@]C\000\000\351C\323\215ZF\000\000pB\000\000\201B\000\000\256B\000\000\204B\000\000\342B\000\000ZC\256S\343D\000\000pB\000\000pBo\022\300B\000\000\204Bff\340B\000\000\351C\376w\360E\000\000XB\000\000XB#\333^B\000\000XB\000\000|B\000\000\204By\351\227A\000\000XB\000\000XBo\222lB\000\000XB\000\000\204B\000\000\204By\351\027B\000\000XB\000\000XBL\267eB\000\000XB\000\000\204B\000\000\204B\331\316\363A\000\000\300@\000\000\340@\000\000PA\000\000PA\000\000\200?\000\000\000\000\000\000\000\000\000\000\000\000\000\000\000\000\000\000\000\000\000\000\000\000\000\000\000\000\000\000\200@\000\000\240@\000\300 D\000\000\000@\000\000\240@\000\000\200?\000\000\200?\000\000\200?\000\000\200?\000\000\200?\000\000\200?\000\000\000\000\000\000\000\000\000\000pB\000\000pB\315\314\007C\000\000pB\000\000\332C\000\000\332C\260\231\303F\000\000pB\000\340\246C\'I\201D\000\200\271D\000\200\271D\000\200\271Dx\331\306H\000\000pB\000\000pB\260\372$D\000\300\326C\000\200\271D\000\200\271DK&\331H\000\000XB\000\000XB\315\314\\B\000\000XB\315\314hB\000\000\204BfffA\000\000XB\000\000XB#\333^B\000\000XB\000\000|B\000\000\204By\351\227A\000\000XB\000\000XB\000\000^B\000\000XB\000\000dB\000\000\204B\341z\203A\000\000\240@\000\000PA\000\000\020A\000\000`A\000\000\000\000\000\000\200@\000\000\000\000\000\000\000\000\000\000\000\000\000\000\000\000\000\000\000\000\000\000\000\000\000\000\200@\000\0000A\000\000\310C\000\000\000@\000\000\000@\000\000\200?\000\000\200?\000\000\000\000\000\000\000\000\000\000\200?\000\000\200?\000\000\000\000\000\000\000\000\000\000pB\000\000pB\000\000pB\000\000pB\000\000pB\000\000pB\000\000\000\000\000\000pB\000\000pB\000\000\245B\000\000\233B\000\000\346B\000\000\346B\260j9D\000\000pB\000\000pB\311\266\221B\000\000pB\000\000\336B\000\000\346Bw\336\000D\000\000XB\000\000XB\000\000XB\000\000XB\000\000XB\000\000XB\000\000\000\000\000\000XB\000\000XB\000\000XB\000\000XB\000\000XB\000\000XB\000\000\000\000\000\000XB\000\000XB\000\000XB\000\000XB\000\000XB\000\000XB\000\000\000\000\000\000\000@\000\000\200@\000\000@@\000\000\200@\000\000\200?\000\000\000\000\000\000\000\000\000\000\000\000\000\000\000\000\000\000\000\000\000\000\000\000\000\000\000\000\000\000\000@\000\000\200@\000\000@A\000\000\000\000\000\000\000@\000\000\000\000\000\000\000\000\000\000\200?\000\000\200?\000\000\000\000\000\000\000\000\000\000\000\000\000\000\000\000\000\000\204B\000\000\204B7IwC\000\000\204B\000@\206D\000`\245D\345\277[H\000\000\204B\000\000\204B\232\231\037C\000\000\204B\000\200\003D\000\200\003D\315\354#G\000\000\204B\000\000\204B\000\300RC\000\000\204Bfv\rD\000`\245D\260\301\010H\000\000\204B\000\000\204B\221m\207B\000\000\204B33\227B\000\000\234Bh\221\244A\000\000\204B\000\000\204B33\207B\000\000\204B\000\000\224B\000\000\224B\315\314LA\000\000\204B\000\000\204B\201U\207B\000\000\204Bff\224B\000\000\234Bb\020~A\000\000\200@\000\000\200@\000\000\300@\000\000\240@\000\000\000\000\000\000\000\000\000\000\000\000\000\000\000\000\000\000\000\000\000\000\000\000\000\000\000\000\000\000\000\000\000\000\200?\000\000\200?\000 \235D\000\000\200?\000\000\200?\000\000\200?\000\000\200?\000\000\000@\000\000\200?\000\000\200?\000\000\200?\000\000\000\000\000\000\000\000\000\000pB\000\000pB\252q\314B\000\000pB\000\000wC\000\000\201C\215\233\323E\000\000pB\000\000pBf\246!D\000\000`C\000@\275D\000@\275DsJ\353H\000\000pB\000\000pBV^\302C\000\000\204B\000@\275D\000@\275D\2561\235H\000\000XB\000\000XB\376T]B\000\000XB\000\000pB\000\000\204B\000\000\200A\000\000XB\000\000XB\315\314\\B\000\000XB\315\314hB\000\000\204BfffA\000\000XB\000\000XBP\r]B\000\000XB\000\000XB\000\000\204BV\016eA\000\000\200@\000\000\020A\000\000\000A\000\000 A\000\000\200?\000\000\000\000\000\000\000\000\000\000\000\000\000\000\000\000\000\000\000\000\000\000\000\000\000\000\000\000\000\000@@\000\000\000A\000\000\304C\000\000\000@\000\000@@\000\000\200?\000\000\200?\000\000\200?\000\000\200?\000\000\200?\000\000\200?\000\000\000\000\000\000\000\000\000\000pB\000\000pB\000\000vB\000\000pB\000\000\204B\000\000\204B\000\000\020A\000\000pB\000\000pB\000\000pB\000\000pB\000\000pB\000\000pB\000\000\000\000\000\000pB\000\000pB\000\000tB\000\000pBff\203B\000\000\204B\000\000\300@\000\000XB\000\000XB\000\000dB\000\000XB\000\000\204B\000\000\204B\000\000\020B\000\000XB\000\000XB\000\000`B\000\000`B\000\000hB\000\000hB\000\000\000A\000\000XB\000\000XB\002\253bB\000\000XB33\203B\000\000\204Bj\274\273A\000\000@@\000\000\000@\000\000@@\000\000\000@\000\000\000\000\000\000\000\000\000\000\000\000\000\000\000\000\000\000\000\000\000\000\000\000\000\000\000\000\000\000\000\000\000\000\000@\000\000\000@\000\000@A\000\000\000\000\000\000\000\000\000\000\200?\000\000\200?\000\000\200?\000\000\200?\000\000\200?\000\000\000\000\000\000\000\000\000\000\000\000\000\000pB\000\000pB\000\000pB\000\000pB\000\000pB\000\000pB\000\000\000\000\000\000pB\000\000|B\177\252\222B\000\000\204B\000\000\322B\000\000\346B\000\340\260C\000\000pB\000\000pB\000\000\207B\000\000pB\232\031\236B\000\000\346B?UkC\000\000XB\000\000XB\000\000XB\000\000XB\000\000XB\000\000XB\000\000\000\000\000\000XB\000\000XB\002\253rB\000\000\204B\000\000\204B\000\000\204B\000\000 B\000\000XB\000\000XB\000\000gB\000\000XB\000\000\204B\000\000\204B\000\000\004B\000\000\000@\000\000\200@\000\000\340@\000\000\020A\000\000\200?\000\000\000\000\000\000\000\000\000\000\000\000\000\000\000\000\000\000\000\000\000\000\000\000\000\000\000\000\000\000\000@\000\000@@\000\000@A\000\000\000\000\000\000\000@\000\000\000\000\000\000\000\000\000\000\200?\000\000\200?\000\000\000\000\000\000\000\000\000\000\000\000\000\000\000\000\000\000pB\000\000pB\246\333\362B\000\000pB33\310C\000\000\362C\222\274\307F\000\000pB\000\000pBu\233ZD\000`\271D\000\200\271D\000\200\271D5\000\rI\000\000pB\000\000pB\351\366\370C\000\000|B\000\200\271D\000\200\271D\226t\322H\000\000XB\000\000XB#\333^B\000\000XBff~B\000\000\204Bh\221\244A\000\000XB\000\000XB#\333^B\000\000XBff~B\000\000\204Bh\221\244A\000\000XB\000\000XB#\333^B\000\000XB\000\000|B\000\000\204By\351\227A\000\000\200@\000\000\300@\000\000\300@\000\000\340@\000\000\000\000\000\000\000\000\000\000\000\000\000\000\000\000\000\000\000\000\000\000\000\000\000\000\000\000\000\000\000\000\000\000@@\000\000\240@\000\000\335C\000\000\200?\000\000\200?\000\000\200?\000\000\200?\000\000\200?\000\000\200?\000\000\200?\000\000\200?\000\000\000\000\000\000\000\000\000\000pB\000\000pBV\216\377B\000\000pB\000\200\263C\000\000\361C\343\332\243F\000\000pB\000\000pB\037\335\031D\000\000\230C\000@\275D\000@\275D\317\370\330H\000\000pB\000\000pB\000\000\306C\000\000\204B\315\354\267D\000@\275D\r\303\224H\000\000XB\000\000XB\002\253bB\000\000XB\000\000\204B\000\000\204B\000\000\340A\000\000XB\000\000XB/]\\B\000\000XB\232\231aB\000\000\204B\274tQA\000\000XB\000\000XB33_B\000\000XBff\200B\000\000\204B\246\233\232A\000\000\200@\000\000\020A\000\000\000A\000\0000A\000\000\200?\000\000\000\000\000\000\000\000\000\000\000\000\000\000\000\000\000\000\000\000\000\000\000\000\000\000\000\000\000\000\000@\000\000\000A\000\200\030D\000\000\000@\000\000\200@\000\000\200?\000\000\200?\000\000\200?\000\000\200?\000\000\200?\000\000\200?\000\000\000\000\000\000\000\000\000\000pB\000\000pB7\311-C\000\000pB\000\200\337C\000\000\363Ci\025\007G\000\000pB\000\000\204B\000\200MD\000\300eD\000\200\271D\000\200\271D\361\222\326H\000\000pB\000\000pB\374\231\006D\000\000\376B\000\200\271D\000\200\271D\237\336\260H\000\000XB\000\000XB\221m[B\000\000XB\000\000XB\000\000\204Bu\223$A\000\000XB\000\000XB\376TeB\000\000XB\000\000\204B\000\000\204B9\264\364A\000\000XB\000\000XB\000\000aB\000\000XB\000\000\204B\000\000\204B\366(\265A\000\000\340@\000\000`A\000\000PA\000\000\220A\000\000\200?\000\000\000@\000\000\000\000\000\000\000\000\000\000\000\000\000\000\000\000\000\000\000\000\000\000\000\000\000\000\300@\000\000@A\000\200\232D\000\000\200@\000\000\200@\000\000\200?\000\000\200?\000\000\000\000\000\000\000\000\000\000\200?\000\000\200?\000\000\000\000\000\000\000\000\000\000pB\000\000pB\323\355\034C\000\000pB\000\240\354C\000\200\026D\234E\023G\000\000pB\000\000\204B\321\222HD\000@BD\000\200\271D\000\200\271Dg\221\342H\000\000pB\000\000pBdk\377C\000\000\204B\000\200\271D\000\200\271D\253\333\264H\000\000XB\000\000XB\221m[B\000\000XB\000\000XB\000\000\204Bu\223$A\000\000XB\000\000XB\244\360hB\000\000XB\000\000\204B\000\000\204B\226\303\013B\000\000XB\000\000XB\n\327bB\000\000XB\000\000\204B\000\000\204B\240\032\320A\000\000\300@\000\000@A\000\000PA\000\000\210A\000\000\200?\000\000\000A\000\000\000\000\000\000\000\000\000\000\000\000\000\000\000\000\000\000\000\000\000\000\000\000\000\000\240@\000\000 A\000\200\320C\000\000@@\000\000@@\000\000\200?\000\000\200?\000\000\000\000\000\000\000\000\000\000\200?\000\000\200?\000\000\000\000\000\000\000\000\000\000pB\000\000pB\'\341\320C\000\000pB\000\200\271D\000\200\271D[\034\244H\000\000pB\000\000\204B3\373DD\000`\022D\000\200\271D\000\200\271Dag\335H\000\000pB\000\000pBF\026\036D\000\000SC\000\200\271D\000\200\271D\004\031\323H\000\000XB\000\000XB\360\247YB\000\000XB\000\000XB\000\000\204By\351\236@\000\000XB\000\000XB33_B\000\000XBff\200B\000\000\204B\343\245\226A\000\000XB\000\000XB5\336\\B\000\000XB\000\000XB\000\000\204B\270\036UA\000\000\200A\000\000\340A\000\000\340A\000\000 B\000\000\000@\000\000\200@\000\000\000\000\000\000\000\000\000\000\000\000\000\000\000\000\000\000\000\000\000\000\000\000\000\000pA\000\000\320A\000\330\355E\000\000\300@\000\000\000A\000\000\200?\000\000\200?\000\000\000\000\000\000\000\000\000\000\200?\000\000\200?\000\000\000\000\000\000\000\000\000\000pB\000\000pB\000\000vB\000\000pB\000\000\204B\000\000\204B\000\000\020A\000\000pB\000\000pB\000\000pB\000\000pB\000\000pB\000\000pB\000\000\000\000\000\000pB\000\000pB\000\000tB\000\000pBff\203B\000\000\204B\000\000\300@\000\000XB\000\000XB\000\000dB\000\000XB\000\000\204B\000\000\204B\000\000\020B\000\000XB\000\000XB\000\000`B\000\000`B\000\000hB\000\000hB\000\000\000A\000\000XB\000\000XB\002\253bB\000\000XB33\203B\000\000\204Bj\274\273A\000\000@@\000\000\000@\000\000@@\000\000\000@\000\000\000\000\000\000\000\000\000\000\000\000\000\000\000\000\000\000\000\000\000\000\000\000\000\000\000\000\000\000\000\000\000\000\000@\000\000\000@\000\000@A\000\000\000\000\000\000\000\000\000\000\200?\000\000\200?\000\000\200?\000\000\200?\000\000\200?\000\000\000\000\000\000\000\000\000\000\000\000\000\000pB\000\000pB\000\000vB\000\000pB\000\000\204B\000\000\204B\000\000\020A\000\000pB\000\000pB\000\000pB\000\000pB\000\000pB\000\000pB\000\000\000\000\000\000pB\000\000pB\000\000tB\000\000pBff\203B\000\000\204B\000\000\300@\000\000XB\000\000XB\000\000dB\000\000XB\000\000\204B\000\000\204B\000\000\020B\000\000XB\000\000XB\000\000`B\000\000`B\000\000hB\000\000hB\000\000\000A\000\000XB\000\000XB\002\253bB\000\000XB33\203B\000\000\204Bj\274\273A\000\000@@\000\000\000@\000\000@@\000\000\000@\000\000\000\000\000\000\000\000\000\000\000\000\000\000\000\000\000\000\000\000\000\000\000\000\000\000\000\000\000\000\000\000\000\000\000@\000\000\000@\000\000@A\000\000\000\000\000\000\000\000\000\000\200?\000\000\200?\000\000\200?\000\000\200?\000\000\200?\000\000\000\000\000\000\000\000\000\000\000\000\000\000\204B\000\000\204B\000\000\017C\000\000\204B\000\200\335C\000\200\335C\000\322\333F\000\000\204B\000\000\204B\000@2C\000\000\214B\000\200\375C\000\200\375C@\260;G\000\000\204B\000\000\204B\301\252\036C\000\000\204B\000\200\355C\000\200\375C\200_\375F\000\000\204B\000\000\204B33\207B\000\000\204B\000\000\224B\000\000\224B\315\314LA\000\000\204B\000\000\204B\000\000\210B\000\000\204B\000\000\224B\000\000\224B\000\000\200A\000\000\204B\000\000\204BV\216\207B\000\000\204B\000\000\224B\000\000\224B\240\032GA\000\000@@\000\000\200@\000\000\200@\000\000\200@\000\000\000\000\000\000\000\000\000\000\000\000\000\000\000\000\000\000\000\000\000\000\000\000\000\000\000\000\000\000\000\000\000\000\200?\000\000\200?\000\200\274C\000\000\200?\000\000\200?\000\000\200?\000\000\200?\000\000\200?\000\000\200?\000\000\200?\000\000\200?\000\000\000\000\000\000\000\000\000\000pB\000\000pB\266\023UC\000\000pB\315,\007D\000\200AD\224\205iG\000\000pB\000\200\232B\351v\270C\000\000\025C\000@\240D\000@\275D6bzH\000\000pB\000\000pB\313\361\222C\000\000\306B\000\300\020D\000@\275DPI\036H\000\000XB\000\000XB\'\261[B\000\000XB\000\000XB\000\000\204Bd;1A\000\000XB\000\000XB\221m[B\000\000XB\000\000XB\000\000\204Bu\223$A\000\000XB\000\000XBV\216[B\000\000XB\000\000XB\000\000\204B\223\030$A\000\000\000A\000\000PA\000\000@A\000\000`A\000\000\000\000\000\000\000\000\000\000\000\000\000\000\000\000\000\000\000\000\000\000\000\000\000\000\000\000\000\000\000\000\000\000\340@\000\000@A\000@\375D\000\000\240@\000\000\020A\000\000\200?\000\000\200?\000\000\200?\000\000\200?\000\000\200?\000\000\200?\000\000\000\000\000\000\000\000\000\000pB\000\000pB\000\200\035C\000\000pB\0000\001D\000\200\005D\343V\020G\000\000pB\000\300SD\000|\211D\000\200\271D\000\200\271D\000\200\271D\321\375\236H\000\000pB\000\000pBf\006%D\000\300\371C\000\200\271D\000\200\271D\305\370\311H\000\000XB\000\000XB#\333^B\000\000XB\000\000|B\000\000\204By\351\227A\000\000XB\000\000XB\000\000[B\000\000XB\000\000XB\000\000\204B\000\000\020A\000\000XB\000\000XB\315\314\\B\000\000XB\000\000XB\000\000\204B\022\203VA\000\000\240@\000\000`A\000\000PA\000\000\200A\000\000\000\000\000\000\000\000\000\000\000\000\000\000\000\000\000\000\000\000\000\000\000\000\000\000\000\000\000\000\000\000\000\000\200@\000\000PA\000\300aD\000\000@@\000\000@@\000\000\200?\000\000\200?\000\000\200?\000\000\200?\000\000\200?\000\000\200?\000\000\000\000\000\000\000\000\000\000pB\000\000pBL\367]C\000\000pB\000\200\030D\000\200\271D\314\352\323G\000\000pB\000\200\013C\207~\\D\000\200\257D\000\200\257D\000\200\271D\367\207\271H\000\000pB\000\000pBLW\032D\000\000HC\000\200\257D\000\200\271D\2328\267H\000\000XB\000\000XB\240\032YB\000\000XB\000\000XB\000\000\204BshQ@\000\000XB\000\000XB\333yYB\000\000XB\000\000XB\000\000\204B\372~\212@\000\000XB\000\000XB\370SYB\000\000XB\000\000XB\000\000\204B`\345x@\000\000\360A\000\000\350B\000\000\254B\000\000\002C\000\000\000\000\000\000\000@\000\000\000\000\000\000\000\000\000\000\000\000\000\000\000\000\000\000\000\000\000\000\000\000\000\000\350A\000\000\342B\000\304NF\000\000\300A\000\000\344B\000\000\200?\000\000\200?\000\000\000\000\000\000\000\000\000\000\200?\000\000\200?\000\000\000\000\000\000\000\000\000\000pB\000\000pB\020\230\217C\000\000|B3\223OD\000@pDj\322\364G\000\000pB\000\300\016Dj\214\177D\000\200\271D\000\200\271D\000\200\271D\305\255\247H\000\000pB\000\000pB\250\376@D\000@)D\000\200\271D\000\200\271D\303\324\275H\000\000XB\000\000XB\000\000aB\000\000XB\000\000\204B\000\000\204B33\273A\000\000XB\000\000XBJ\214YB\000\000XB\000\000XB\000\000\204B\327\243\224@\000\000XB\000\000XB\201\025\\B\000\000XB\000\000XB\000\000\204B\307K7A\000\000\340@\000\000\310A\000\000pA\000\000\370A\000\000\000\000\000\000\000@\000\000\000\000\000\000\000\000\000\000\000\000\000\000\000\000\000\000\000\000\000\000\000\000\000\000\240@\000\000\300A\000\300\355D\000\000\240@\000\000\000A\000\000\200?\000\000\200?\000\000\000\000\000\000\000\000\000\000\200?\000\000\200?\000\000\000\000\000\000\000\000\000\000pB\000\000pB\232\231sC\000\000\204B\000\000\001D\000\000\001D\315\220qG\000\000pB\000\000pB\301\252bC\000\000\204B\000\200\nD\000\200\nD\253\370\234G\000\000pB\000\000pB\000@mC\000\000\204B\315,