node {
  name: "Placeholder"
  op: "Placeholder"
  attr {
    key: "dtype"
    value {
      type: DT_FLOAT
    }
  }
  attr {
    key: "shape"
    value {
      shape {
      }
    }
  }
}
node {
  name: "Placeholder_1"
  op: "Placeholder"
  attr {
    key: "dtype"
    value {
      type: DT_FLOAT
    }
  }
  attr {
    key: "shape"
    value {
      shape {
      }
    }
  }
}
node {
  name: "Const"
  op: "Const"
  attr {
    key: "dtype"
    value {
      type: DT_FLOAT
    }
  }
  attr {
    key: "value"
    value {
      tensor {
        dtype: DT_FLOAT
        tensor_shape {
          dim {
            size: 3237
          }
          dim {
            size: 67
          }
        }
        tensor_content: "\000\000\230B\000\000\230B\301\252pC\000\000\230B\315L|D\000@\204Dw\223\034H\000\000\230B\000\000\230B\000H=D\000\340\032D\000@\277D\000@\277D\020\204\004I\000\000\230B\000\000\230BN\362\005D\000\000\236B\000@\277D\000@\277D<+\317H\000\000XB\000\000XB\000\000`B\000\000XB\315\314\202B\000\000\204B\000\000\300A\000\000XB\000\000XB\000\000^B\000\000XB33wB\000\000\204B\000\000\220A\000\000XB\000\000XB#\333^B\000\000XB\000\000|B\000\000\204By\351\227A\000\000@@\000\000\340@\000\000\240@\000\000\340@\000\000\000@\000\000\000\000\000\000\000\000\000\000\000\000\000\000\000\000\000\000\000\000\000\000\000\000\000\000\000\000\000\000@@\000\000\340@\000@\202D\000\000\200?\000\000\200?\000\000\200?\000\000\200?\000\000\200?\000\000\200?\000\000\000\000\000\000\200?\000\000\000\000\000\000\000\000\000\000\230B\000\000\230B\000@\376B\000\000\230B3\023\250C\000\200\354Cd\245\230F\000\000\230B\000\000\230B\213$\"D\000\300\033D\000@\277D\000@\277D>\n\316H\000\000\230B\000\000\230B\307;\271C\000\000\244Bf\346\221D\000@\277D?z\200H\000\000XB\000\000XB\000\000dB\000\000XB\000\000\204B\000\000\204B#\333\366A\000\000XB\000\000XB#\333^B\000\000XBff~B\000\000\204Bh\221\244A\000\000XB\000\000XB\232\231aB\000\000XB\000\000\204B\000\000\204B\356|\305A\000\000\200@\000\000\240@\000\000\340@\000\000\340@\000\000\000@\000\000\000\000\000\000\000\000\000\000\000\000\000\000\000\000\000\000\000\000\000\000\000\000\000\000\000\000\000\000\200@\000\000\240@\000\200\357C\000\000\200?\000\000\000@\000\000\200?\000\000\200?\000\000\200?\000\000\200?\000\000\000\000\000\000\200?\000\000\000\000\000\000\000\000\000\000\230B\000\000\230B?U\024C\000\000\230B\000\300\310C\000@4D\200)4G\000\000\230B\000\000\244B\000\000\310B\000\000\244B\000\2003C\000\000hCJ\0222E\000\000\230B\000\000\230B\016-\373B\000\000\244B\000\000\376B\000@4DD\273\302F\000\000XB\000\000XB\376T]B\000\000XB\000\000pB\000\000\204B\000\000\200A\000\000XB\000\000dB\000\000|B\000\000\204B\000\000\204B\000\000\204B#\333\366A\000\000XB\000\000XB\226\303kB\000\000XB\000\000\204B\000\000\204Bj<\024B\000\000\200@\000\000@@\000\000\000A\000\000\000A\000\000\200?\000\000\000\000\000\000\000\000\000\000\000\000\000\000\000\000\000\000\000\000\000\000\000\000\000\000\000\000\000\000\200@\000\000@@\000\3005D\000\000\200?\000\000\200?\000\000\200?\000\000\200?\000\000\000\000\000\000\000\000\000\000\000\000\000\000\200?\000\000\000\000\000\000\000\000\000\000\230B\000\000\230B\177\252\322B\000\000\244B3\363\003C\000\000|C\230v$E\000\000\230B\000\000\230B\313\341nC\000\000\326B\315\214\373C\000\200\273D\327\271\022H\000\000\230B\000\000\230B33*C\000\000\244B33=C\000\200\273DJ\237\225G\000\000XB\000\000XB\376T]B\000\000XB33_B\000\000\204B\252\361pA\000\000XB\000\000XB\362\322ZB\000\000XB\000\000XB\000\000\204B7\211\007A\000\000XB\000\000XB\262\035\\B\000\000XB\000\000XB\000\000\204B;\3379A\000\000 A\000\0000A\000\000\210A\000\000`A\000\000\200?\000\000\200?\000\000\000\000\000\000\000\000\000\000\000\000\000\000\000\000\000\000\000\000\000\000\000\000\000\000 A\000\0000A\000\2006D\000\000\000A\000\000\000A\000\000\200?\000\000\200?\000\000\200?\000\000\200?\000\000\000\000\000\000\200?\000\000\000\000\000\000\000\000\000\000\230B\000\000\244B{\024,C\000\000\244Bf\346(C\000\300\262Dc\375\263G\000\000\244B\000\000\322BL\337VD\000\300\262D\000\300\262D\000\300\262D\363\t\304H\000\000\230B\000\000\244B\272I\360C\000\000\260B\000\300\262D\000\300\262D\201\202\251H\000\000XB\000\000\204B\201\225\202B\000\000\204B\000\000\204B\000\000\224B\020XsA\000\000\204B\000\000\204B\323M\205B\000\000\204B\000\000\204B\000\000\234B\213l\357@\000\000XB\000\000\204B\323\315\203B\000\000\204B\000\000\204B\000\000\234B\035ZBA\000\000\014B\000\000\244B\000\000\304B\000\000\270B\000\000\020A\000\000\000@\000\000\000\000\000\000\000\000\000\000\000\000\000\000\000\000\000\000\000\000\000\000\000\000\000\000\014B\000\000\244B\000 \'F\000\000\210A\000\000\350A\000\000\240@\000\000\240@\000\000\000A\000\000\240@\000\000\240@\000\000\240@\000\000\000\000\000\000\000\000\000\000\244B\000\000\244B33\023C\000\000\244B\000\000\310C\000\000\310Cf\036\234F\000\000\244B\000\000\244B\232\231HC\000\000\244B\000\300\'D\000\300\'D\346\017\207G\000\000\244B\000\000\244Bf\346-C\000\000\244B\315l\367C\000\300\'D\250\327\035G\000\000\204B\000\000\204B33\207B\000\000\204B\000\000\224B\000\000\224B\315\314LA\000\000\204B\000\000\204B\232\231\205B\000\000\204B\000\000\214B\000\000\214B\315\314L@\000\000\204B\000\000\204Bff\206B\000\000\204B\315\314\216B\000\000\224B}?\351@\000\000@@\000\000\200@\000\000\200@\000\000\240@\000\000\000\000\000\000\000\000\000\000\000\000\000\000\000\000\000\000\000\000\000\000\000\000\000\000\000\000\000\000\000\000\000\000@@\000\000\200@\000\000\267C\000\000\200?\000\000\200?\000\000\200?\000\000\200?\000\000\200?\000\000\200?\000\000\200?\000\000\000\000\000\000\000\000\000\000\000\000\000\000\230B\000\000\230BV\216TC\000\000\230B\000\340+D\000\300SD\244\n\232G\000\000\230B\000\000\230B\000\000\nC\000\000\236B\000\000\237C\000\000\237C\333\366@F\000\000\230B\000\000\230B\223x1C\000\000\230B\000\200\276C\000\300SD\004\3454G\000\000XB\000\000XB\376T]B\000\000XB\000\000pB\000\000\204B\000\000\200A\000\000XB\000\000XB\000\000dB\000\000XB\000\000\204B\000\000\204B#\333\366A\000\000XB\000\000XB\325x`B\000\000XB\000\000\204B\000\000\204BH\341\261A\000\000\240@\000\000\240@\000\000\000A\000\000\000A\000\000\000@\000\000\000\000\000\000\000\000\000\000\000\000\000\000\000\000\000\000\000\000\000\000\000\000\000\000\000\000\000\000\240@\000\000\240@\000\340\245D\000\000\000@\000\000\000@\000\000\200?\000\000\200?\000\000\200?\000\000\200?\000\000\000\000\000\000\200?\000\000\000\000\000\000\000\000\000\000\230B\000\000\230B\027I\251C\000\000\230B\232Y\244D\000@\277DIg\220H\000\000\230B\000\000\230B\000\000\331B\000\000\230B\232\331\177C\000\200\204C3\337\267E\000\000\230B\000\000\230B\217bhC\000\000\230B\315\214\331C\000@\277D\373\266 H\000\000XB\000\000XB#\333^B\000\000XBff~B\000\000\204Bh\221\244A\000\000XB\000\000XB\000\000`B\000\000XB\315\314\202B\000\000\204B\000\000\300A\000\000XB\000\000XBNb_B\000\000XB\232\231\201B\000\000\204B\311v\242A\000\000\200@\000\000\200@\000\000\300@\000\000\300@\000\000\000@\000\000\000\000\000\000\000\000\000\000\000\000\000\000\000\000\000\000\000\000\000\000\000\000\000\000\000\000\000\000\200@\000\000\200@\000@\357D\000\000\200?\000\000\200?\000\000\200?\000\000\200?\000\000\200?\000\000\200?\000\000\000\000\000\000\200?\000\000\000\000\000\000\000\000\000\000\230B\000\000\230B33+C\000\000\230B\000\200\010D\000\200\010D3\201+G\000\000\230B\000\000\230B?U*C\000\000\234B\000\200\262C\000\200\262C\252,\314F\000\000\230B\000\000\230B\000\340*C\000\000\232B\315\354\357C\000\200\010D\256W\376F\000\000XB\000\000XB\232\231aB\000\000XB\000\000\204B\000\000\204Bff\346A\000\000XB\000\000XB\002\253bB\000\000XB\000\000xB\000\000xB\374\251\252A\000\000XB\000\000XB\000\000bB\000\000XB33\201B\000\000\204Bh\221\264A\000\000@@\000\000@@\000\000\200@\000\000@@\000\000\200?\000\000\000\000\000\000\000\000\000\000\000\000\000\000\000\000\000\000\000\000\000\000\000\000\000\000\000\000\000\000@@\000\000@@\000\200\004D\000\000\200?\000\000\200?\000\000\200?\000\000\200?\000\000\200?\000\000\200?\000\000\000\000\000\000\000\000\000\000\000\000\000\000\000\000\000\000\230B\000\000\230Bm\'WC\000\000\230Bf\206\005D\000\000\007D\371\3116G\000\000\230B\000\000\241B\262\215@D\000@SD\000@\246D\000@\246D|?\232H\000\000\230B\000\000\230BD{\373C\000\200\251C\000@\246D\000@\246D\271W}H\000\000XB\000\000XB\'\261[B\000\000XB\000\000XB\000\000\204Bd;1A\000\000XB\000\000XB\221m[B\000\000XB\000\000XB\000\000\204Bu\223$A\000\000XB\000\000XBV\216[B\000\000XB\000\000XB\000\000\204B\223\030$A\000\000\300@\000\000PA\000\000@A\000\000`A\000\000\200?\000\000\200?\000\000\000\000\000\000\000\000\000\000\000\000\000\000\000\000\000\000\000\000\000\000\000\000\000\000\300@\000\000PA\000 \361D\000\000\200@\000\000\200@\000\000\200?\000\000\200?\000\000\200?\000\000\200?\000\000\000\000\000\000\200?\000\000\000\000\000\000\000\000\000\000\244B\000\000\244Bff\025C\000\000\244B\000\200\315C\000\200\315C\232+\247F\000\000\244B\000\000\244B`U\213C\000\000\264B\000\000&D\000\000&D\253\210\331G\000\000\244B\000\000\244B\000\340EC\000\000\254B\315\334\017D\000\000&DE\215=G\000\000\204B\000\000\204B33\207B\000\000\204B\000\000\224B\000\000\224B\315\314LA\000\000\204B\000\000\204B\201U\211B\000\000\204B\000\000\224B\000\000\224B\374\251\252A\000\000\204B\000\000\204B\000\000\210B\000\000\204B\000\000\224B\000\000\224B\213l[A\000\000@@\000\000@@\000\000\200@\000\000@@\000\000\000\000\000\000\000\000\000\000\000\000\000\000\000\000\000\000\000\000\000\000\000\000\000\000\000\000\000\000\000\000\000\000@@\000\000@@\000\200\274C\000\000\200?\000\000\200?\000\000\200?\000\000\200?\000\000\200?\000\000\200?\000\000\200?\000\000\200?\000\000\000\000\000\000\000\000\000\000\244B\000\000\244B\232\231\"C\000\000\244B\000\200\356C\000\200\356C\232k\361F\000\000\244B\000\000\244B\232\231MC\000\000\244B\000\000-D\000\000-Dfl\220G\000\000\244B\000\000\244B\232\0318C\000\000\244B\000\020\nD\000\000-D\032\0108G\000\000\204B\000\000\204B33\207B\000\000\204B\000\000\224B\000\000\224B\315\314LA\000\000\204B\000\000\204B33\207B\000\000\204B\000\000\224B\000\000\224B\315\314LA\000\000\204B\000\000\204B33\207B\000\000\204B\000\000\224B\000\000\224BJ\0146A\000\000@@\000\000\200@\000\000\200@\000\000\240@\000\000\000\000\000\000\000\000\000\000\000\000\000\000\000\000\000\000\000\000\000\000\000\000\000\000\000\000\000\000\000\000\000\000@@\000\000\200@\000\200\335C\000\000\200?\000\000\200?\000\000\200?\000\000\200?\000\000\200?\000\000\200?\000\000\200?\000\000\200?\000\000\000\000\000\000\000\000\000\000\230B\000\000\230B\315\314\014D\000\000\244B\000@\246D\000@\246D&\350\327H\000\000\230B\000\000\230B\000\000{C\000\000\236B\000\200@D\000\200@D\000\326\351G\000\000\230B\000\000\230B\3258\324C\000\000\244B\000`\241D\000@\246Dy\030\217H\000\000XB\000\000XB\232\231aB\000\000XB\000\000\204B\000\000\204Bff\346A\000\000XB\000\000XB\000\000dB\000\000XB\000\000\204B\000\000\204B\000\000\020B\000\000XB\000\000XB\002\253bB\000\000XB\000\000\204B\000\000\204B\000\000\340A\000\000\200@\000\000@@\000\000\200@\000\000\200@\000\000\200?\000\000\000\000\000\000\000\000\000\000\000\000\000\000\000\000\000\000\000\000\000\000\000\000\000\000\000\000\000\000\200@\000\000@@\000\000\035E\000\000\200?\000\000\200?\000\000\200?\000\000\200?\000\000\000\000\000\000\000\000\000\000\000\000\000\000\200?\000\000\000\000\000\000\000\000\000\000\244B\000\000\244B?U7C\000\000\244B33\"D\000\200)D\336}eG\000\000\244B\000\000\244B33\365B\000\000\244B\000\200\212C\000\200\212Cf.\351E\000\000\244B\000\000\244B\035\272\033C\000\000\244B\232\231\262C\000\200)D\236U\002G\000\000\204B\000\000\204B\000\000\210B\000\000\204B\315\314\232B\000\000\234B\000\000\300A\000\000\204B\000\000\204B33\207B\000\000\204B\000\000\224B\000\000\224B\315\314LA\000\000\204B\000\000\204B\321\242\207B\000\000\204B\232\231\225B\000\000\234B\337O\211A\000\000@@\000\000\200@\000\000\240@\000\000\240@\000\000\000\000\000\000\000\000\000\000\000\000\000\000\000\000\000\000\000\000\000\000\000\000\000\000\000\000\000\000\000\000\000\000@@\000\000\200@\000\000!D\000\000\200?\000\000\200?\000\000\200?\000\000\200?\000\000\200?\000\000\200?\000\000\200?\000\000\200?\000\000\000\000\000\000\000\000\000\000\230B\000\000\230B\3258\364B\000\000\230B\000\300\215C\000\200\362C9\265\220F\000\000\230B\000\000\013C\333\211\210D\000@\277D\000@\277D\000@\277Dgo\344H\000\000\230B\000\000\230B-\332-D\000\000\013C\000@\277D\000@\277D\344_\372H\000\000XB\000\000XB\376T]B\000\000XB\000\000pB\000\000\204B\000\000\200A\000\000XB\000\000XB\'\261[B\000\000XB\000\000XB\000\000\204Bd;1A\000\000XB\000\000XB/]\\B\000\000XB\000\000XB\000\000\204B\356|GA\000\000@@\000\000@A\000\000\000A\000\000PA\000\000\200?\000\000\000\000\000\000\000\000\000\000\000\000\000\000\000\000\000\000\000\000\000\000\000\000\000\000\000\000\000\000@@\000\000@A\000\200\352C\000\000\200?\000\000\200?\000\000\200?\000\000\200?\000\000\200?\000\000\200?\000\000\000\000\000\000\200?\000\000\000\000\000\000\000\000\000\000\230B\000\000\230B\207\026\304C\000\000\230Bf\326\253D\000\200\273D\211\340\245H\000\000\230B\000\000\230B7I8C\000\000\244B\000\000\337C\000\000\337C\323\217\346F\000\000\230B\000\000\230B\037%\225C\000\000\244B\315\314\032D\000\200\273D\2609HH\000\000XB\000\000XB\362\322ZB\000\000XB\000\000XB\000\000\204B7\211\007A\000\000XB\000\000XBo\222lB\000\000XB\000\000\204B\000\000\204By\351\027B\000\000XB\000\000XB\n\327bB\000\000XB\000\000\204B\000\000\204B\240\032\320A\000\000 A\000\000\300@\000\000\200A\000\000`A\000\000\000@\000\000\000@\000\000\000\000\000\000\000\000\000\000\000\000\000\000\000\000\000\000\000\000\000\000\000\000\000\000 A\000\000\300@\000\330\207E\000\000\200@\000\000\200@\000\000\200?\000\000\200?\000\000\000\000\000\000\000\000\000\000\000\000\000\000\200?\000\000\000\000\000\000\000\000\000\000\244B\000\000\244B!\260\262B\000\000\244B\000\000\274B\000\000TCD\233\212C\000\000\244B\000@\277D\006\225\271D\000@\277D\000@\277D\000@\277D+\000pG\000\000\244B\000\000\244B\207\276HD\000\000TC\000@\277D\000@\277DN\250\376H\000\000\204B\000\000\204B\276\237\216B\000\000\204B\000\000\234B\000\000\234B\315L\014B\000\000\204B\000\000\204B\356<\204B\000\000\204B\000\000\204B\000\000\224B\341zt?\000\000\204B\000\000\204B\337O\211B\000\000\204B\000\000\234B\000\000\234B\033/\302A\000\000\200@\000\000\206B\000\000xB\000\000\206B\000\000\000\000\000\000\000\000\000\000\000\000\000\000\000\000\000\000\000\000\000\000\000\000\000\000\000\000\000\000\000\000\000\000\200@\000\000\206B\000\000BC\000\000\200?\000\000\000@\000\000\000@\000\000\200?\000\000\200?\000\000\200?\000\000\000@\000\000\200?\000\000\000\000\000\000\000\000\000\000\230B\000\000\230B\321\2425C\000\000\230B\000\200#D\000\200#Dt\021UG\000\000\230B\000\000\230B\301\252\034C\000\000\230B\000\000\237C\000\000\237C\000\304dF\000\000\230B\000\000\230Bff*C\000\000\230B\000\000\237C\000\200#D3\333\010G\000\000XB\000\000XB/]\\B\000\000XB\232\231aB\000\000\204B\274tQA\000\000XB\000\000XB\250\306YB\000\000XB\000\000`B\000\000hB\201\225\343?\000\000XB\000\000XB33[B\000\000XB\000\000XB\000\000\204Bm\347\367@\000\000\300@\000\000\200@\000\000 A\000\000\020A\000\000\200?\000\000\000\000\000\000\000\000\000\000\000\000\000\000\000\000\000\000\000\000\000\000\000\000\000\000\000\000\000\000\300@\000\000\200@\000@\240D\000\000\000@\000\000@@\000\000\200?\000\000\200?\000\000\000\000\000\000\000\000\000\000\000\000\000\000\000\000\000\000\000\000\000\000\000\000\000\000\230B\000\000\230B+GuC\000\000\236B33\tD\000\000\214D*\231\337G\000\000\230B\000\000\230B\000\000\010D\000\000\326Bf\216\270D\000@\277D1\315\307H\000\000\230B\000\000\230B\313Q\305C\000\000\244B\315\204\237D\000@\277D\337f\207H\000\000XB\000\000XB\000\000`B\000\000XB\000\000\204B\000\000\204Bsh\251A\000\000XB\000\000XB\376T]B\000\000XB33_B\000\000\204B\252\361pA\000\000XB\000\000XB\002\253^B\000\000XB\232\231mB\000\000\204BF\266\215A\000\000 A\000\000pA\000\000\200A\000\000\220A\000\000@@\000\000\000\000\000\000\000\000\000\000\000\000\000\000\000\000\000\000\000\000\000\000\000\000\000\000\000\000\000\000 A\000\000pA\000PJE\000\000\300@\000\000\000A\000\000\000@\000\000\000@\000\000\000@\000\000\000@\000\000\000\000\000\000\000@\000\000\000\000\000\000\000\000\000\000\244B\000\000\244B-\222CC\000\000\244B3\2631D\000@XD\245:\252G\000\000\230B\000\000\236B\000\000\356B\000\000\244B\000\200\204C\000\200\204C\000\360\320E\000\000\230B\000\000\244B\301\252#C\000\000\244B\000\200\223C\000@XD>FIG\000\000\204B\000\000\204B\221m\207B\000\000\204B33\227B\000\000\234Bh\221\244A\000\000XB\000\000pBff\202B\000\000\204B\000\000\224B\000\000\224B\315\314LB\000\000XB\000\000\204B\201U\205B\000\000\204Bff\224B\000\000\234B\270\036\374A\000\000\200@\000\000\200@\000\000\300@\000\000\200@\000\000\000\000\000\000\000\000\000\000\000\000\000\000\000\000\000\000\000\000\000\000\000\000\000\000\000\000\000\000\000\000\000\000\200@\000\000\200@\000\300SD\000\000\200?\000\000\200?\000\000\200?\000\000\200?\000\000\000@\000\000\200?\000\000\200?\000\000\200?\000\000\000\000\000\000\000\000\000\000\230B\000\000\230B\000\200#C\000\000\230BfV\016D\000\300\024D\346\223.G\000\000\230B\000\000\236B\232\231uC\000\000\244B\000\200bD\000\200bD3\032\005H\000\000\230B\000\000\230Bh\321HC\000\000\244B\315L$D\000\200bD{\267\231G\000\000XB\000\000XB\000\000`B\000\000XB\315\314\202B\000\000\204B\000\000\300A\000\000XB\000\000XB\315\314tB\000\000\204B\000\000\204B\000\000\204B\315\314,B\000\000XB\000\000XB\274tiB\000\000XB\000\000\204B\000\000\204B\270\236\022B\000\000\200@\000\000@@\000\000\240@\000\000\240@\000\000\200?\000\000\000\000\000\000\000\000\000\000\000\000\000\000\000\000\000\000\000\000\000\000\000\000\000\000\000\000\000\000\200@\000\000@@\000@\026D\000\000\200?\000\000\200?\000\000\200?\000\000\200?\000\000\000\000\000\000\000\000\000\000\000\000\000\000\200?\000\000\000\000\000\000\000\000\000\000\230B\000\000\244B-\"\201C\000\000\216C\000\300\002D\000\300\022D\375\352\372F\000\000\230B\000\000\233B\000\240\253C\000\000\343B\000\300\205D\000\300\205DGV<H\000\000\230B\000\000\244B\274\004\224C\000\000\021C\315\214\017D\000\300\205D\242\301\304G\000\000XB\000\000XB\232\231aB\000\000XB\000\000\204B\000\000\204B\356|\305A\000\000XB\000\000XB\000\000dB\000\000XB\000\000\204B\000\000\204B\327\243\353A\000\000XB\000\000XB\002\253bB\000\000XB\000\000\204B\000\000\204B\234\304\316A\000\000@A\000\000\020A\000\000@A\000\000@A\000\000\200?\000\000\000\000\000\000\000\000\000\000\000\000\000\000\000\000\000\000\000\000\000\000\000\000\000\000\000\000\000\000@A\000\000\020A\000 9E\000\000\020A\000\000\300@\000\000@@\000\000@@\000\000\000\000\000\000\000\000\000\000\000\000\000\000@@\000\000\000\000\000\000\000\000\000\000\230B\000\000\230B\000@\010C\000\000\230B\000\200\244C\000\000\266C%KGF\000\000\230B\000\000\241B\240j\337C\000\200YC\315\314\265D\000\200\273D\354\264\224H\000\000\230B\000\000\230B\262\255\206C\000\000\244B\000\000\005D\000\200\273D\350\360\021H\000\000XB\000\000XB\000\000^B\000\000XB33wB\000\000\204B\000\000\220A\000\000XB\000\000XB\000\000`B\000\000XB\315\314\202B\000\000\204B\000\000\300A\000\000XB\000\000XB#\333^B\000\000XB\000\000|B\000\000\204By\351\227A\000\000\240@\000\000\240@\000\000\340@\000\000\300@\000\000\200?\000\000\000\000\000\000\000\000\000\000\000\000\000\000\000\000\000\000\000\000\000\000\000\000\000\000\000\000\000\000\240@\000\000\240@\000\000\021D\000\000\000@\000\000@@\000\000\200?\000\000\200?\000\000\200?\000\000\000\000\000\000\000\000\000\000\200?\000\000\000\000\000\000\000\000\000\000\244B\000\000\244B\000\200&C\000\000\244Bf6\nD\000@\020D\200\021\036G\000\000\244B\000\000\244B\000\200eC\000\000\254B\000\000&D\000\000&D\200\350\243G\000\000\244B\000\000\244B3\263?C\000\000\244B\315\334\027D\000\000&D\3468IG\000\000\204B\000\000\204B\000\000\210B\000\000\204B\315\314\232B\000\000\234B\000\000\300A\000\000\204B\000\000\204B\000\000\210B\000\000\204B\000\000\224B\000\000\224B\000\000\200A\000\000\204B\000\000\204B\000\000\210B\000\000\204B\315\314\226B\000\000\234B\004V\225A\000\000\200@\000\000@@\000\000\240@\000\000\200@\000\000\000\000\000\000\000\000\000\000\000\000\000\000\000\000\000\000\000\000\000\000\000\000\000\000\000\000\000\000\000\000\000\000\200@\000\000@@\000\300\013D\000\000\200?\000\000\200?\000\000\200?\000\000\200?\000\000\200?\000\000\200?\000\000\200?\000\000\200?\000\000\000\000\000\000\000\000\000\000\230B\000\000\230B\000\200\210C\000\000\230B\000\340\203D\000\340\203D\000\241:H\000\000\230B\000\000\230B\260\n4D\000\240\nD\000@\277D\000@\277D\017\r\001I\000\000\230B\000\000\230B-:\001D\000\000\244B\000@\277D\000@\277D6\001\301H\000\000XB\000\000XB\232\231aB\000\000XB\000\000\204B\000\000\204Bff\346A\000\000XB\000\000XB\000\000`B\000\000XB\315\314\202B\000\000\204B\000\000\300A\000\000XB\000\000XB^\272`B\000\000XB\000\000\204B\000\000\204B\022\203\274A\000\000@@\000\000\300@\000\000\200@\000\000\300@\000\000\200?\000\000\000\000\000\000\000\000\000\000\000\000\000\000\000\000\000\000\000\000\000\000\000\000\000\000\000\000\000\000@@\000\000\300@\000\340\201D\000\000\200?\000\000@@\000\000\200?\000\000\200?\000\000\200?\000\000\200?\000\000\000\000\000\000\200?\000\000\000\000\000\000\000\000\000\000\230B\000\000\230B7IGC\000\000\230Bff\246C\000\240\264D\250)\304G\000\000\230B\000\000\244B\n\327\277C\000\000\326B\315\034\211D\000\200\273D\377@TH\000\000\230B\000\000\230B\000\300\225C\000\000\244B\000\000=D\000\200\273D\0267%H\000\000XB\000\000XB\264HZB\000\000XB\000\000XB\000\000\204B\213l\333@\000\000XB\000\000XB\037\205cB\000\000XB\000\000\204B\000\000\204BH\341\332A\000\000XB\000\000XB\323M_B\000\000XB\315\314\202B\000\000\204B\221\355\227A\000\0000A\000\000\200A\000\000\240A\000\000\310A\000\000\200?\000\000\000@\000\000\000\000\000\000\000\000\000\000\000\000\000\000\000\000\000\000\000\000\000\000\000\000\000\0000A\000\000\200A\00000E\000\000\000A\000\000PA\000\000\200?\000\000\200?\000\000\000\000\000\000\000\000\000\000\000\000\000\000\200?\000\000\000\000\000\000\000\000\000\000\230B\000\000\230B\000\200VC\000\000\230Bf\206\"D\000\0000D\333\353\201G\000\000\230B\000\000\230B\232\231\233C\000\000\244B\000\000nD\000\000nDM\356\014H\000\000\230B\000\000\230B\'\261{C\000\000\230Bf&,D\000\000nD\236l\256G\000\000XB\000\000XB\000\000^B\000\000XB33wB\000\000\204B\000\000\220A\000\000XB\000\000XB\232\231aB\000\000XB\000\000\204B\000\000\204Bff\346A\000\000XB\000\000XBNb_B\000\000XB\232\231\201B\000\000\204B\311v\242A\000\000\240@\000\000\200@\000\000\340@\000\000\240@\000\000\200?\000\000\000\000\000\000\000\000\000\000\000\000\000\000\000\000\000\000\000\000\000\000\000\000\000\000\000\000\000\000\240@\000\000\200@\000\300\226D\000\000\000@\000\000\000@\000\000\200?\000\000\200?\000\000\200?\000\000\200?\000\000\000\000\000\000\200?\000\000\000\000\000\000\000\000\000\000\230B\000\000\230ByidC\000\000\230B\000\300\335C\000@\265D\270\2424H\000\000\230B\000@\265D\372n\251D\000@\265D\000@\265D\000@\265D\025^\334G\000\000\230B\000\000\244B\002\003\204D\000@\265D\000@\265D\000@\265D\342\022\272H\000\000XB\000\000XB\362\322ZB\000\000XB\000\000XB\000\000\204B7\211\007A\000\000XB\000\000XB\037\005YB\000\000XB\000\000XB\000\000\204B\223\030D@\000\000XB\000\000XB\000\200YB\000\000XB\000\000XB\000\000\204B^\272\215@\000\000\240@\000\0008B\000\000\200A\000\000<B\000\000\200?\000\000\000\000\000\000\000\000\000\000\000\000\000\000\000\000\000\000\000\000\000\000\000\000\000\000\000\000\000\000\240@\000\0008B\000\020(E\000\000\200?\000\000\000@\000\000\200?\000\000\200?\000\000\200?\000\000\000\000\000\000\000\000\000\000\200?\000\000\000\000\000\000\000\000\000\000\230B\000\000\230B`\325\346C\000\200\322C\315\314zD\000\000~D\304\t5H\000\000\230B\000\000\230B\000\000\356C\000\000\236B\315|\263D\000\300\265Df\177\300H\000\000\230B\000\000\230B\240j\352C\000\000\244B3\303\212D\000\300\265D\334\253\200H\000\000XB\000\000XB\000\000`B\000\000XB\315\314\202B\000\000\204B\000\000\300A\000\000XB\000\000XB\000\000`B\000\000XB\315\314\202B\000\000\204B\000\000\300A\000\000XB\000\000XB\000\000`B\000\000XB\000\000\204B\000\000\204BD\213\256A\000\000@@\000\000\200@\000\000\240@\000\000\300@\000\000\200?\000\000\000\000\000\000\000\000\000\000\000\000\000\000\000\000\000\000\000\000\000\000\000\000\000\000\000\000\000\000@@\000\000\200@\000\200\322D\000\000@@\000\000\200?\000\000\200?\000\000\200?\000\000\000\000\000\000\000\000\000\000\000\000\000\000\000\000\000\000\000\000\000\000\000\000\000\000\230B\000\000\230B\223\330\020C\000\000\230B3s\266C\000\000\276C\363\215\200F\000\000\230B\000\000\230B?UWC\000\000\230B\000\200\371C\000\200\371C\300\263*G\000\000\230B\000\000\230B\230\256-C\000\000\230B\232\231\332C\000\200\371C7Y\325F\000\000XB\000\000XB\351&^B\000\000XB\000\000XB\000\000\224B\351&\366A\000\000XB\000\000XB\250\306YB\000\000XB\000\000`B\000\000hB\201\225\343?\000\000XB\000\000XB/]\\B\000\000XB\000\000XB\000\000\224B\006\201\224A\000\000\300@\000\000\000A\000\000@A\000\000\020A\000\000\000\000\000\000\000\000\000\000\000\000\000\000\000\000\000\000\000\000\000\000\000\000\000\000\000\000\000\000\000\000\000\000\300@\000\000\000A\000\300{D\000\000@@\000\000\300@\000\000\200?\000\000\200?\000\000\200?\000\000\200?\000\000\200?\000\000\000\000\000\000\000\000\000\000\000\000\000\000\230B\000\000\230B9\324\006D\000\000\230B\000@\251D\000\300\266D\244\226\276H\000\000\230B\000\000\230B\000\000IC\000\000\244B\000\200\364C\000\200\021D\035\371\375F\000\000\230B\000\000\230B9\024\271C\000\000\244B\0008\245D\000\300\266D\250\224eH\000\000XB\000\000XB+\207ZB\000\000XB\000\000XB\000\000\204B+\207\362@\000\000XB\000\000XB\313\241dB\000\000XB\000\000\204B\000\000\204B\301\312\353A\000\000XB\000\000XB{\224_B\000\000XB\000\000\204B\000\000\204B\337O\235A\000\0000A\000\000\020A\000\000\220A\000\000\230A\000\000\200?\000\000@@\000\000\000\000\000\000\000\000\000\000\000\000\000\000\000\000\000\000\000\000\000\000\000\000\000\0000A\000\000\020A\000x\370E\000\000\340@\000\000\340@\000\000\200?\000\000\200?\000\000\000\000\000\000\000\000\000\000\000\000\000\000\200?\000\000\000\000\000\000\000\000\000\000\230B\000\000\230B\000\320\237C\000\000\230B\000\010\222D\000@\265DHNrH\000\000\230B\000\000\230Bj\234\010D\000\000\230B\000@\265D\000@\265DY\337\340H\000\000\230B\000\000\230B^\332\333C\000\000\230B\000@\265D\000@\265D\027\027\254H\000\000XB\000\000XB\000\000^B\000\000XB33wB\000\000\204B\000\000\220A\000\000XB\000\000XB\250\306YB\000\000XB\000\000`B\000\000hB\201\225\343?\000\000XB\000\000XB\226\303[B\000\000XB\315\314\\B\000\000\204B\252\361\020A\000\000\200@\000\000\340@\000\000\340@\000\000\020A\000\000\000@\000\000\000\000\000\000\000\000\000\000\000\000\000\000\000\000\000\000\000\000\000\000\000\000\000\000\000\000\000\000\200@\000\000\340@\000 \375D\000\000\200?\000\000\200?\000\000\200?\000\000\200?\000\000\200?\000\000\200?\000\000\000\000\000\000\000\000\000\000\000\000\000\000\000\000\000\000\244B\000\000\244Bff\037C\000\000\244B\000\200\346C\000\200\346C\232+\336F\000\000\244B\000\000\244B\000`\237C\000\000\260B\000@~D\000@~D\220\244SH\000\000\244B\000\000\244B\3258fC\000\000\244B\000\3008D\000@~D\231G\310G\000\000\204B\000\000\204B33\207B\000\000\204B\000\000\224B\000\000\224B\315\314LA\000\000\204B\000\000\204B\000\000\212B\000\000\204B\000\000\234B\000\000\234B\000\000\020B\000\000\204B\000\000\204B\252q\210B\000\000\204B\000\000\230B\000\000\234BP\215\243A\000\000@@\000\000\200@\000\000\200@\000\000\200@\000\000\000\000\000\000\000\000\000\000\000\000\000\000\000\000\000\000\000\000\000\000\000\000\000\000\000\000\000\000\000\000\000\000@@\000\000\200@\000\200\325C\000\000\200?\000\000\200?\000\000\200?\000\000\200?\000\000\200?\000\000\200?\000\000\200?\000\000\200?\000\000\000\000\000\000\000\000\000\000\230B\000\000\230B\000\200+C\000\000\230B3\223\033D\000\200&D\351\335=G\000\000\230B\000\000\244BZt\377C\000\000\244B\315\014\252D\000@\277D\211\304\263H\000\000\230B\000\000\230B\272\351\246C\000\000\244B\000\300\211D\000@\277D\212\201XH\000\000XB\000\000XB\000\000`B\000\000XB\000\000\204B\000\000\204BD\213\256A\000\000XB\000\000XB\024.rB\000\000\204B\000\000\204B\000\000\204B\215\027\035B\000\000XB\000\000XB-\262hB\000\000XB\000\000\204B\000\000\204B\232\231\010B\000\000\240@\000\000\240@\000\0000A\000\0000A\000\000\200?\000\000\000\000\000\000\000\000\000\000\000\000\000\000\000\000\000\000\000\000\000\000\000\000\000\000\000\000\000\000\240@\000\000\240@\000\300\232D\000\000\000@\000\000@@\000\000\200?\000\000\200?\000\000\000\000\000\000\000\000\000\000\000\000\000\000\200?\000\000\000\000\000\000\000\000\000\000\230B\000\000\230B-\222jC\000\000\230Bf\346nD\000\300\222D\222\226\'H\000\000\230B\000\000\230B\315\314\372C\000\000\244B\000 \216D\000 \216DJH\244H\000\000\230B\000\000\230B\240\352\254C\000\000\236B3[\216D\000\300\222DgZeH\000\000XB\000\000XBL\267eB\000\000XB\000\000\204B\000\000\204B\335$\tB\000\000XB\000\000XB\232\231aB\000\000XB\000\000\204B\000\000\204Bff\346A\000\000XB\000\000XB\000\000dB\000\000XB\000\000\204B\000\000\204B\327\243\353A\000\000\200@\000\000@@\000\000\300@\000\000\240@\000\000\200?\000\000\000\000\000\000\000\000\000\000\000\000\000\000\000\000\000\000\000\000\000\000\000\000\000\000\000\000\000\000\200@\000\000@@\000\200\223D\000\000\200?\000\000\000@\000\000\200?\000\000\200?\000\000\200?\000\000\200?\000\000\000\000\000\000\200?\000\000\000\000\000\000\000\000\000\000\244B\000\000\244B\035\272\tC\000\000\244B\000\000\244B\000\000\242D\033\273\202G\000\000\244B\000\200JD\3316\227D\000@\277D\000@\277D\000@\277D@\263\240H\000\000\244B\000\000\244B\217\2028D\000\000\200C\000@\277D\000@\277D\252\242\363H\000\000\204B\000\000\204B\n\027\205B\000\000\204B\000\000\204B\000\000\234B\244p\321@\000\000\204B\000\000\204Bo\222\204B\000\000\204B\000\000\204B\000\000\224B\323M\022@\000\000\204B\000\000\204B\315\314\204B\000\000\204B\000\000\204B\000\000\234B\276\237\202@\000\000@@\000\000\200A\000\000\250A\000\000\340A\000\000\200?\000\000\000\000\000\000\000\000\000\000\000\000\000\000\000\000\000\000\000\000\000\000\000\000\000\000\000\000\000\000@@\000\000\200A\000\300\235D\000\000\200?\000\000@@\000\000\200?\000\000\200?\000\000\000\000\000\000\000@\000\000\200?\000\000\200?\000\000\000\000\000\000\000\000\000\000\230B\000\000\230BD\013\331B\000\000\230B\000\000\244B\000@\032D9\361LF\000\000\230B\000@\277D}S\267D\000@\277D\000@\277D\000@\277DB\177\224G\000\000\230B\000\000\230B\207\366uD\000@\277D\000@\277D\000@\277D~\350\350H\000\000XB\000\000XBNb_B\000\000XB\000\000\204B\000\000\204B\301\312\226A\000\000XB\000\000XB\301JXB\000\000XB\000\000XB\000\000\204BR\270^?\000\000XB\000\000XB\337\317ZB\000\000XB\000\000XB\000\000\204B!\260\376@\000\000\210A\000\000\241C\000\0004C\000\000\245C\000\000@@\000\000\000\000\000\000\000\000\000\000\000\000\000\000\000\000\000\000\000\000\000\000\000\000\000\000\000\000\000\000\210A\000\000\241C\000\010\277E\000\000PA\000\000pA\000\000\000@\000\000\000@\000\000\000@\000\000\000@\000\000\000\000\000\000\000@\000\000\000\000\000\000\000\000\000\000\230B\000\000\230B\000\200xC\000\000\230B\000\200\212D\000\200\212D\251g\035H\000\000\230B\000\000\230B\362\242\216C\000\000\244B\000 \227D\000 \227D4\262KH\000\000\230B\000\000\230B#\013\205C\000\000\230B\000\200\212D\000 \227D\327\242+H\000\000XB\000\000XB\000\000\\B\000\000XBffZB\000\000\204B\000\000@A\000\000XB\000\000XB\024.rB\000\000\204B\000\000\204B\000\000\204B\215\027\035B\000\000XB\000\000XB\246\233fB\000\000XB\000\000\204B\000\000\204B\364\375\376A\000\000\240@\000\000\240@\000\0000A\000\000 A\000\000\200?\000\000\000\000\000\000\000\000\000\000\000\000\000\000\000\000\000\000\000\000\000\000\000\000\000\000\000\000\000\000\240@\000\000\240@\000\200\007E\000\000\000@\000\000\000@\000\000\200?\000\000\200?\000\000\200?\000\000\200?\000\000\000\000\000\000\200?\000\000\000\000\000\000\000\000\000\000\230B\000\000\230B\000\000\311C\000\000\244B\000\000~D\000\000~D\0009HH\000\000\230B\000\000\230B\000\000\013D\000\000\244B\000\300\265D\000\300\265D@/\331H\000\000\230B\000\000\230B\000\200\357C\000\000\244BfV\230D\000\300\265D\262<\220H\000\000XB\000\000XB\232\231aB\000\000XB\000\000\204B\000\000\204Bff\346A\000\000XB\000\000XB\232\231aB\000\000XB\000\000\204B\000\000\204Bff\346A\000\000XB\000\000XB\232\231aB\000\000XB\000\000\204B\000\000\204B\315\314\314A\000\000@@\000\000\200@\000\000\200@\000\000\240@\000\000\200?\000\000\000\000\000\000\000\000\000\000\000\000\000\000\000\000\000\000\000\000\000\000\000\000\000\000\000\000\000\000@@\000\000\200@\000\200\322D\000\000\000@\000\000\200?\000\000\200?\000\000\200?\000\000\000\000\000\000\000\000\000\000\000\000\000\000\000\000\000\000\000\000\000\000\000\000\000\000\230B\000\000\230B\315\314-C\000\000\230B\315,\223C\000\000\210D\350\321UG\000\000\230B\000\000\230Bb8\006D\000\200\207C\000@\277D\000@\277D26\252H\000\000\230B\000\000\230BN\342\263C\000\000\244B\315\334\222D\000@\277D\367\234fH\000\000XB\000\000XB33_B\000\000XBff\200B\000\000\204B\343\245\226A\000\000XB\000\000XBo\222\\B\000\000XB\000\000XB\000\000\204BB`KA\000\000XB\000\000XB\035\332]B\000\000XB\000\000XB\000\000\204B\217\302yA\000\000\220A\000\000\020B\000\000\020B\000\000(B\000\000\240@\000\000\000\000\000\000\000\000\000\000\000\000\000\000\000\000\000\000\000\000\000\000\000\000\000\000\000\000\000\000\220A\000\000\020B\000\300\204E\000\000 A\000\000\220A\000\000\200@\000\000\200@\000\000\200@\000\000\200@\000\000\000\000\000\000\200@\000\000\000\000\000\000\000\000\000\000\230B\000\000\230B?U\"C\000\000\230B\315\254\014D\000\000\023D\336\343)G\000\000\230B\000\000\230Bf\346\211C\000\000\230B\000 \206D\000 \206D\315\362AH\000\000\230B\000\000\230B\264\350UC\000\000\230B\000@+D\000 \206D?}\314G\000\000XB\000\000XB\000\000`B\000\000XB\315\314\202B\000\000\204B\000\000\300A\000\000XB\000\000XBff^B\000\000XB\000\000xB\000\000xB\315\314LA\000\000XB\000\000XB\242E_B\000\000XB33{B\000\000\204B\337O\211A\000\000@@\000\000\200@\000\000\240@\000\000\200@\000\000\200?\000\000\000\000\000\000\000\000\000\000\000\000\000\000\000\000\000\000\000\000\000\000\000\000\000\000\000\000\000\000@@\000\000\200@\000\000\017D\000\000\200?\000\000\200?\000\000\200?\000\000\200?\000\000\200?\000\000\200?\000\000\000\000\000\000\000\000\000\000\000\000\000\000\000\000\000\000\230B\000\000\230B\000@\035C\000\000\236B3s\364C\000\0001D[{AG\000\000\230B\000\000\230BN\222\232C\000\000\244B\315\014\237D\000@\277D\317T\217H\000\000\230B\000\000\230B\014\"dC\000\000\244Bff\002D\000@\277D\177\014\031H\000\000XB\000\000XB\000\000jB\000\000XB\000\000\204B\000\000\204B\264H\032B\000\000XB\000\000XBL\267eB\000\000XB\000\000\204B\000\000\204B\335$\tB\000\000XB\000\000XB\000\000hB\000\000XB\000\000\204B\000\000\204B\335$\tB\000\000@@\000\000\240@\000\000\300@\000\000\340@\000\000\000@\000\000\000\000\000\000\000\000\000\000\000\000\000\000\000\000\000\000\000\000\000\000\000\000\000\000\000\000\000\000@@\000\000\240@\000\000-D\000\000\200?\000\000\200?\000\000\000@\000\000\000@\000\000\200?\000\000\200?\000\000\000\000\000\000\000@\000\000\000\000\000\000\000\000\000\000\230B\000\000\230B\311\266GC\000\000\230B\232\031>D\000\200hDI\216\312G\000\000\230B\000\000\230B\325\270\327C\000\000\244B\000\200\232D\000@\277D\331/\227H\000\000\230B\000\000\230B\360\007\245C\000\000\236B\000\200kD\000@\277D\363\212WH\000\000XB\000\000XBL\267eB\000\000XB\000\000\204B\000\000\204B\335$\tB\000\000XB\000\000XB\376T]B\000\000XB\000\000pB\000\000\204B\000\000\200A\000\000XB\000\000XB\000\000aB\000\000XB\000\000\204B\000\000\204B33\273A\000\000@@\000\000\300@\000\000\300@\000\000\020A\000\000\200?\000\000\000\000\000\000\000\000\000\000\000\000\000\000\000\000\000\000\000\000\000\000\000\000\000\000\000\000\000\000@@\000\000\300@\000\200dD\000\000\200?\000\000@@\000\000\200?\000\000\200?\000\000\200?\000\000\200?\000\000\000\000\000\000\200?\000\000\000\000\000\000\000\000\000\000\230B\000\000\230B\313Q\226C\000\000\230B33\277C\000@\277D\2540uH\000\000\230B\000@\277D\331:\247D\000@\277D\000@\277D\000@\277D\316\343UH\000\000\230B\000\000\230B\037U~D\000@\277D\000@\277D\000@\277D\361\352\337H\000\000XB\000\000XB\002\253XB\000\000XB\000\000XB\000\000\204B\000\000\000@\000\000XB\000\000XB\223\230XB\000\000XB\000\000XB\000\000\204B\201\225\343?\000\000XB\000\000XB\270\236XB\000\000XB\000\000XB\000\000\204B\226C\353?\000\000\270A\000\000\026C\000\000\216B\000\000!C\000\000\200?\000\000\000\000\000\000\000\000\000\000\000\000\000\000\000\000\000\000\000\000\000\000\000\000\000\000\000\000\000\000\270A\000\000\026C\0008\202F\000\000 A\000\000pA\000\000\200?\000\000\200?\000\000\200?\000\000\000\000\000\000\000\000\000\000\200?\000\000\000\000\000\000\000\000\000\000\230B\000\000\230B?\325\\C\000\000\230BfV]D\000\300gD|\332\351G\000\000\230B\000\000\230B\000\200*C\000\000\230B\000\000\343C\000\000\343C\000\211\013G\000\000\230B\000\000\230B3\263HC\000\000\230B3\343\032D\000\300gDs~\232G\000\000XB\000\000XB\000\000hB\000\000XB\232\231\231B\000\000\234B\000\000\300B\000\000XB\000\000XB\000\000\\B\000\000XB\000\000hB\000\000hB\000\000\200@\000\000XB\000\000XB33cB\000\000XB\000\000\202B\000\000\234B\234DdB\000\000@@\000\000\200@\000\000\240@\000\000\200@\000\000\000\000\000\000\000\000\000\000\000\000\000\000\000\000\000\000\000\000\000\000\000\000\000\000\000\000\000\000\000\000\000\000@@\000\000\200@\000\300cD\000\000\200?\000\000\200?\000\000\200?\000\000\200?\000\000\200?\000\000\200?\000\000\200?\000\000\000\000\000\000\000\000\000\000\000\000\000\000\230B\000\000\230B\000\000\242B\000\000\230B\000\000\230B\000\000,C\000\000\323C\000\000\230B\000\300+D\232\201\224D\000@\277D\000@\277D\000@\277D#`\266H\000\000\230B\000\000\230B\260\n\030D\000\000\230B\000@\277D\000@\277D\341\206\355H\000\000XB\000\000XB\321\242[B\000\000XB\000\000XB\000\000\224B\274t\221A\000\000XB\000\000XBffZB\000\000XB\000\000XB\000\000\204Bff\346@\000\000XB\000\000XBJ\014[B\000\000XB\000\000XB\000\000\224B\264\310JA\000\000\200@\000\000\230A\000\000\250A\000\000\240A\000\000\000\000\000\000\000\000\000\000\000\000\000\000\000\000\000\000\000\000\000\000\000\000\000\000\000\000\000\000\000\000\000\000\200@\000\000\230A\000\0002C\000\000\200?\000\000\000@\000\000\200?\000\000\200?\000\000\200?\000\000\200?\000\000\200?\000\000\200?\000\000\000\000\000\000\000\000\000\000\230B\000\000\230B\226c\'C\000\000\275Bf&\265C\000\200\315C\231\257sF\000\000\230B\000\000\233B\360\247\211C\000\000\344Bf\2468D\000@\246D\006\207\037H\000\000\230B\000\000\230B\016-ZC\000\000\326B\000\000\265C\000@\246Da\216\246G\000\000XB\000\000XB\002\253ZB\000\000XB\000\000XB\000\000\204B\000\000\000A\000\000XB\000\000XB\000\000aB\000\000XB\000\000\204B\000\000\204B33\273A\000\000XB\000\000XB\343\245]B\000\000XB\000\000XB\000\000\204B\177jvA\000\000@A\000\0000A\000\000\210A\000\000\200A\000\000\200?\000\000\200?\000\000\000\000\000\000\000\000\000\000\000\000\000\000\000\000\000\000\000\000\000\000\000\000\000\000@A\000\0000A\000 \355D\000\000\020A\000\000\000A\000\000\200?\000\000\200?\000\000\000\000\000\000\000\000\000\000\000\000\000\000\200?\000\000\000\000\000\000\000\000\000\000\230B\000\000\230B\000\000LC\000\000\230BfF\024D\000\000\031D\000\330XG\000\000\230B\000\000\230B\323\005$D\000\000\244B\315\014\276D\000@\277D\220\235\353H\000\000\230B\000\000\230BV\336\350C\000\000\230B\000\300\275D\000@\277D\025\036\247H\000\000XB\000\000XB\000\000^B\000\000XB33wB\000\000\204B\000\000\220A\000\000XB\000\000XB/]\\B\000\000XB\232\231aB\000\000\204B\274tQA\000\000XB\000\000XBP\r]B\000\000XB\000\000XB\000\000\204BV\016eA\000\000\200@\000\000\000A\000\000\340@\000\0000A\000\000\200?\000\000\000\000\000\000\000\000\000\000\000\000\000\000\000\000\000\000\000\000\000\000\000\000\000\000\000\000\000\000\200@\000\000\000A\000\200\211D\000\000\000@\000\000\200@\000\000\200?\000\000\200?\000\000\200?\000\000\200?\000\000\000\000\000\000\200?\000\000\000\000\000\000\000\000\000\000\230B\000\000\230BoR\277B\000\000\230B\000\000\nC\000\000\253CP\311\360D\000\000\230B\000\000\364B\354\261&C\000\000\364B\000\000\364B\000\200\027D\326=\232F\000\000\230B\000\000\230B\000\000\021C\000\000\364B\000\000\364B\000\200\027D\370\360oF\000\000XB\000\000XB\250\306XB\000\000XB\000\000XB\000\000\204B\274t\023@\000\000XB\000\000XB\254\034XB\000\000XB\000\000XB\000\000hB\213l\347=\000\000XB\000\000XB\345PXB\000\000XB\000\000XB\000\000\204B9\264H?\000\000\034B\000\200\207C\000\000\364B\000\000\215C\000\000\200?\000\000\000\000\000\000\000\000\000\000\000\000\000\000\000\000\000\000\000\000\000\000\000\000\000\000\000\000\000\000\034B\000\200\207C\000\200LE\000\000\004B\000\000xC\000\000\000@\000\000\000@\000\000\000@\000\000\000@\000\000\000\000\000\000\000@\000\000\000\000\000\000\000\000\000\000\230B\000\000\230B\000\200\020D\000\000\244B\000@\277D\000@\277DU\326\345H\000\000\230B\000\000\230B\313q\213C\000\000\230B\000\200vD\000@\277D\0074eH\000\000\230B\000\000\230B\000\340\314C\000\000\230B\000@\277D\000@\277D\355\205\244H\000\000XB\000\000XB#\333^B\000\000XBff~B\000\000\204Bh\221\244A\000\000XB\000\000XB\376T]B\000\000XB\000\000pB\000\000\204B\000\000\200A\000\000XB\000\000XB\000\000^B\000\000XB\232\231mB\000\000\204Bff\206A\000\000\240@\000\000\240@\000\000\300@\000\000\000A\000\000\200?\000\000\000\000\000\000\000\000\000\000\000\000\000\000\000\000\000\000\000\000\000\000\000\000\000\000\000\000\000\000\240@\000\000\240@\000\300aE\000\000\200?\000\000\200?\000\000\200?\000\000\200?\000\000\000\000\000\000\200?\000\000\000\000\000\000\200?\000\000\000\000\000\000\000\000\000\000\230B\000\000\230BN\222\347C\000\000\230Bf&\272D\000@\277Dz\323\325H\000\000\230B\000\000\230B\262m\036D\000\000\244B\000@\277D\000@\277D\350\252\366H\000\000\230B\000\000\230Bu\033\tD\000\000\236B\000@\277D\000@\277D?\\\330H\000\000XB\000\000XB#\333^B\000\000XBff~B\000\000\204Bh\221\244A\000\000XB\000\000XB#\333^B\000\000XBff~B\000\000\204Bh\221\244A\000\000XB\000\000XB#\333^B\000\000XB\000\000|B\000\000\204By\351\227A\000\000\200@\000\000\240@\000\000\300@\000\000\340@\000\000\200?\000\000\000\000\000\000\000\000\000\000\000\000\000\000\000\000\000\000\000\000\000\000\000\000\000\000\000\000\000\000\200@\000\000\240@\000 .E\000\000\200?\000\000\000\000\000\000\200?\000\000\200?\000\000\200?\000\000\200?\000\000\000\000\000\000\200?\000\000\000\000\000\000\000\000\000\000\230B\000\000\230B\240\n\310C\000\000\236B\000@\272D\000@\272D\310,\222H\000\000\230B\000\000\230B\230.\227C\000\000\230B\315\354\243D\000 \245D\204\314tH\000\000\230B\000\000\230B\213\254\260C\000\000\230B\2329\244D\000@\272D\237\360\201H\000\000XB\000\000XB\000\000`B\000\000XB\000\000\204B\000\000\204BD\213\256A\000\000XB\000\000XB^\272`B\000\000XB\000\000\204B\000\000\204B\022\203\274A\000\000XB\000\000XB\027Y`B\000\000XB\000\000\204B\000\000\204B%\006\255A\000\000\000A\000\000\340@\000\000 A\000\0000A\000\000\200?\000\000\000\000\000\000\000\000\000\000\000\000\000\000\000\000\000\000\000\000\000\000\000\000\000\000\000\000\000\000\000A\000\000\340@\000\220|E\000\000\000@\000\000\200?\000\000\000@\000\000\000@\000\000\000@\000\000\000@\000\000\000\000\000\000\000@\000\000\000\000\000\000\000\000\000\000\230B\000\000\230B\311\266SC\000\000\230B\000\000\021C\000@\265D\272\355%H\000\000\230B\000@\265D\341\212\251D\000@\265D\000@\265D\000@\265D\317^\333G\000\000\230B\000\000\230B\230\266zD\000@\265D\000@\265D\000@\265D\034\002\311H\000\000XB\000\000XB\264HZB\000\000XB\000\000XB\000\000\204B\213l\333@\000\000XB\000\000XB\037\005YB\000\000XB\000\000XB\000\000\204B\223\030D@\000\000XB\000\000XByiYB\000\000XB\000\000XB\000\000\204B\006\201\205@\000\000\300@\000\0008B\000\000\240A\000\000<B\000\000\200?\000\000\000\000\000\000\000\000\000\000\000\000\000\000\000\000\000\000\000\000\000\000\000\000\000\000\000\000\000\000\300@\000\0008B\000\2409E\000\000\200?\000\000\000@\000\000\200?\000\000\200?\000\000\200?\000\000\000\000\000\000\000\000\000\000\200?\000\000\000\000\000\000\000\000\000\000\230B\000\000\230B\3258\372B\000\000\230B\000\200\224C\000\000\000D9z\244F\000\000\230B\000\000\230B\000\240\306C\000\000\230B3S\253D\000\000\257D\331\361\253H\000\000\230B\000\000\230B\016-}C\000\000\230B\315L<D\000\000\257DB\3403H\000\000XB\000\000XB\376T]B\000\000XB\000\000pB\000\000\204B\000\000\200A\000\000XB\000\000XB\000\000^B\000\000XB33wB\000\000\204B\000\000\220A\000\000XB\000\000XB\343\245]B\000\000XBfffB\000\000\204B\254\034~A\000\000@@\000\000\240@\000\000\000A\000\000\000A\000\000@@\000\000\000@\000\000\000\000\000\000\000\000\000\000\000\000\000\000\000\000\000\000\000\000\000\000\000\000\000\000@@\000\000\240@\000\000pB\000\000\200?\000\000\000@\000\000\200?\000\000\200?\000\000\200?\000\000\000@\000\000\000\000\000\000\200?\000\000\000\000\000\000\000\000\000\000\230B\000\000\230B\232\231\337B\000\000\230B\000\000\244B\000\200QD\2160\213F\000\000\230B\000\300\262DB$\231D\000\300\262D\000\300\262D\000\300\262Dz\334[H\000\000\230B\000\000\230B\2640QD\000\300\262D\000\300\262D\000\300\262D\033h\324H\000\000XB\000\000XB\347{]B\000\000XB\000\000XB\000\000\204B\274tkA\000\000XB\000\000XBw>XB\000\000XB\000\000XB\000\000\204B\366(<?\000\000XB\000\000XBo\022ZB\000\000XB\000\000XB\000\000\204B=\n\277@\000\0000A\000\000+C\000\000\320B\000\000DC\000\000\200A\000\000\200@\000\000\000\000\000\000\000\000\000\000\000\000\000\000\000\000\000\000\000\000\000\000\000\000\000\0000A\000\000+C\000 dE\000\000\020A\000\000\270A\000\000\200?\000\000\200?\000\000\000\000\000\000\000\000\000\000\000\000\000\000\200?\000\000\000\000\000\000\000\000\000\000\230B\000\000\230B\234\244\355C\000\000\244Bf&\271D\000\200\273D\235A\332H\000\000\230B\000\000\230Bff\035D\000\000\244B\000\000\271D\000\000\271D\255X\013I\000\000\230B\000\000\230BP\345\006D\000\000\244B\000 \271D\000\200\273D\210y\337H\000\000XB\000\000XB#\333^B\000\000XBff~B\000\000\204Bh\221\244A\000\000XB\000\000XB\232\231aB\000\000XB\000\000\204B\000\000\204Bff\346A\000\000XB\000\000XB\000\000`B\000\000XB\000\000\204B\000\000\204BD\213\256A\000\000\240@\000\000@@\000\000\300@\000\000\240@\000\000\200?\000\000\200?\000\000\000\000\000\000\000\000\000\000\000\000\000\000\000\000\000\000\000\000\000\000\000\000\000\000\240@\000\000@@\000`\303D\000\000\000@\000\000\000@\000\000\200?\000\000\200?\000\000\000\000\000\000\000\000\000\000\000\000\000\000\200?\000\000\000\000\000\000\000\000\000\000\230B\000\000\230B\000\260\340C\000\000\236B\000@\277D\000@\277Dd\204\331H\000\000\230B\000\000\230B\000\000\341C\000\000\234B\000@\277D\000@\277D\250#\275H\000\000\230B\000\000\230B^\332\340C\000\000\234B\000@\277D\000@\277D\303\273\275H\000\000XB\000\000XB\000\000^B\000\000XB33wB\000\000\204B\000\000\220A\000\000XB\000\000XBV\216[B\000\000XB\000\000hB\000\000xBP\215\343@\000\000XB\000\000XB9\264\\B\000\000XB\232\231aB\000\000\204B\311v8A\000\000\240@\000\000\300@\000\000\340@\000\000\020A\000\000\200?\000\000\000\000\000\000\000\000\000\000\000\000\000\000\000\000\000\000\000\000\000\000\000\000\000\000\000\000\000\000\240@\000\000\300@\000\320@E\000\000\200?\000\000\000@\000\000\200?\000\000\200?\000\000\200?\000\000\200?\000\000\000\000\000\000\000\000\000\000\000\000\000\000\000\000\000\000\230B\000\000\230B\177\n\nC\000\000\230B\000\000\230B\000@6DW\241\347F\000\000\230B\000@\265Db(\250D\000@\265D\000@\265D\000@\265DV\217\316G\000\000\230B\000\000\230B\016\315RD\000@\265D\000@\265D\000@\265D\254R\321H\000\000XB\000\000XB/]XB\000\000XB\000\000XB\000\000\224B9\264\350?\000\000XB\000\000XBP\rXB\000\000XB\000\000XB\000\000hB\364\375T=\000\000XB\000\000XB\024.XB\000\000XB\000\000XB\000\000\224BL7I?\000\000\330A\000\200\226C\000\000[C\000\200\232C\000\000\000\000\000\000\230A\000\000\000\000\000\000\000\000\000\000\000\000\000\000\000\000\000\000\000\000\000\000\000\000\000\000\330A\000\200\226C\000\214BF\000\000\320A\000\000\310A\000\000\200?\000\000\200?\000\000\200?\000\000\200?\000\000\200?\000\000\000\000\000\000\000\000\000\000\000\000\000\000\230B\000\000\230B3c\270C\000\000\230B\315\374~D\000\300\262Dqu[H\000\000\230B\000\000\230B\201\255\024D\000\000\340B\000\300\262D\000\300\262D\301S\311H\000\000\230B\000\000\230B\2521\364C\000\000\230B\000\300\262D\000\300\262D\303\257\242H\000\000XB\000\000XBffZB\000\000XB\000\000XB\000\000\204B\341z\340@\000\000XB\000\000XB\313!ZB\000\000XB\000\000XB\000\000\204B\366(\310@\000\000XB\000\000XB\217BZB\000\000XB\000\000XB\000\000\204B\207\026\321@\000\000\240A\000\000\350A\000\000\030B\000\0004B\000\000\340@\000\000\300@\000\000\000\000\000\000\000\000\000\000\000\000\000\000\000\000\000\000\000\000\000\000\000\000\000\000\240A\000\000\350A\000|=F\000\000 A\000\000\200A\000\000\000@\000\000\000@\000\000\000\000\000\000\000\000\000\000\000\000\000\000\000@\000\000\000\000\000\000\000\000\000\000\230B\000\000\230B\301\252WC\000\000\230B\000 0D\000\340\245D \235)H\000\000\230B\000\000\230B\331\266!D\000\000\247B\000@\277D\000@\277D\016\002\364H\000\000\230B\000\000\230B\244\020\357C\000\000\230B\000@\277D\000@\277D\265\241\305H\000\000XB\000\000XB\376T]B\000\000XB\000\000pB\000\000\204B\000\000\200A\000\000XB\000\000XB\221m[B\000\000XB\000\000XB\000\000\204Bu\223$A\000\000XB\000\000XB\010,\\B\000\000XB\000\000XB\000\000\204B}??A\000\000\200@\000\0000A\000\000\000A\000\000`A\000\000\000@\000\000\000\000\000\000\000\000\000\000\000\000\000\000\000\000\000\000\000\000\000\000\000\000\000\000\000\000\000\000\200@\000\0000A\000\240\246D\000\000\200?\000\000\200@\000\000\200?\000\000\200?\000\000\200?\000\000\200?\000\000\000\000\000\000\200?\000\000\000\000\000\000\000\000\000\000\230B\000\000\230B\000\2000C\000\000\230B\315\334 D\000@(D\263 gG\000\000\230B\000\000\230B\315\314\'C\000\000\230B\000@\004D\000@\004D3I\037G\000\000\230B\000\000\230B\205\213,C\000\000\230B3s\013D\000@(D\337[3G\000\000XB\000\000XB\000\000`B\000\000XB\315\314\202B\000\000\204B\000\000\300A\000\000XB\000\000XB\232\231aB\000\000XB\000\000\204B\000\000\204Bff\346A\000\000XB\000\000XB^\272`B\000\000XB\000\000\204B\000\000\204B\022\203\274A\000\000@@\000\000\200@\000\000\240@\000\000\240@\000\000\000@\000\000\000\000\000\000\000\000\000\000\000\000\000\000\000\000\000\000\000\000\000\000\000\000\000\000\000\000\000\000@@\000\000\200@\000@$D\000\000\200?\000\000\200?\000\000\200?\000\000\200?\000\000\200?\000\000\200?\000\000\000\000\000\000\200?\000\000\000\000\000\000\000\000\000\000\230B\000\000\230B\232\031\302C\000\000\230B3\023\246D\000 \256D#\342\207H\000\000\230B\000\000\001D\215k\212D\000@\277D\000@\277D\000@\277D\t}\257H\000\000\230B\000\000\230B\337\'KD\000\300HD\000@\277D\000@\277D\013\322\332H\000\000XB\000\000XB\n\327[B\000\000XB\000\000XB\000\000\204B\327\2430A\000\000XB\000\000XB\376T]B\000\000XB\000\000XB\000\000\204Bb\020jA\000\000XB\000\000XBR\270\\B\000\000XB\000\000XB\000\000\204Bw\276OA\000\0000A\000\000\360A\000\000\300A\000\000\020B\000\000\200?\000\000@@\000\000\000\000\000\000\000\000\000\000\000\000\000\000\000\000\000\000\000\000\000\000\000\000\000\0000A\000\000\360A\000\350\372E\000\000\340@\000\000\020A\000\000\200?\000\000\200?\000\000\000\000\000\000\000\000\000\000\000\000\000\000\200?\000\000\000\000\000\000\000\000\000\000\230B\000\000\230B\315\314\305C\000\000\244B\000\000vD\000\000vD3\324>H\000\000\230B\000\000\230B\000\000\013D\000\000\244B\000\300\265D\000\300\265D@/\331H\000\000\230B\000\000\230Bf\346\355C\000\000\244BfV\230D\000\300\265D)l\216H\000\000XB\000\000XB\232\231aB\000\000XB\000\000\204B\000\000\204Bff\346A\000\000XB\000\000XB\232\231aB\000\000XB\000\000\204B\000\000\204Bff\346A\000\000XB\000\000XB\232\231aB\000\000XB\000\000\204B\000\000\204B\315\314\314A\000\000@@\000\000\200@\000\000\200@\000\000\240@\000\000\200?\000\000\000\000\000\000\000\000\000\000\000\000\000\000\000\000\000\000\000\000\000\000\000\000\000\000\000\000\000\000@@\000\000\200@\000\200\316D\000\000\000@\000\000\200?\000\000\200?\000\000\200?\000\000\000\000\000\000\000\000\000\000\000\000\000\000\000\000\000\000\000\000\000\000\000\000\000\000\230B\000\000\230B\000\200\267C\000\000\230B\000\240\276D\000\240\276D@\236\314H\000\000\230B\000\000\230B33\277B\000\000\230B\000\000(C\000\000(C\232\231\315D\000\000\230B\000\000\230B\315LgC\000\000\230B\315\274 D\000\240\276D\344\223JH\000\000XB\000\000XB\232\231aB\000\000XB\000\000\204B\000\000\204Bff\346A\000\000XB\000\000XB\232\231aB\000\000XB\000\000\204B\000\000\204Bff\346A\000\000XB\000\000XB\232\231aB\000\000XB\000\000\204B\000\000\204B\315\314\314A\000\000@@\000\000\200@\000\000\200@\000\000\240@\000\000\200?\000\000\000\000\000\000\000\000\000\000\000\000\000\000\000\000\000\000\000\000\000\000\000\000\000\000\000\000\000\000@@\000\000\200@\000\240\274D\000\000\200?\000\000\200?\000\000\200?\000\000\200?\000\000\200?\000\000\200?\000\000\000\000\000\000\200?\000\000\000\000\000\000\000\000\000\000\230B\000\000\230B\000\300\376B\000\000\230B\000\240\216C\000\200\226C\245E\nF\000\000\230B\000\000\230B\000\300\233C\000\000\263B\232y\217D\000@\277D\222\237{H\000\000\230B\000\000\230B!p[C\000\000\236B3S\265C\000@\277D*I\002H\000\000XB\000\000XB\000\000^B\000\000XB33wB\000\000\204B\000\000\220A\000\000XB\000\000XB\000\000^B\000\000XB33wB\000\000\204B\000\000\220A\000\000XB\000\000XB\000\000^B\000\000XB\232\231mB\000\000\204Bff\206A\000\000\200@\000\000\340@\000\000\340@\000\000\000A\000\000\000@\000\000\000\000\000\000\000\000\000\000\000\000\000\000\000\000\000\000\000\000\000\000\000\000\000\000\000\000\000\000\200@\000\000\340@\000\200\363C\000\000\000@\000\000@@\000\000\200?\000\000\200?\000\000\200?\000\000\200?\000\000\000\000\000\000\200?\000\000\000\000\000\000\000\000\000\000\230B\000\000\230B`\025\205C\000\000\230B\232Q\220D\000`\227D\013<QH\000\000\230B\000\000\230B\000`\264C\000\000\230B\000\340\227D\000\340\227DH]\236H\000\000\230B\000\000\230B\000\000\230C\000\000\230B\315\214\227D\000\340\227D\271%`H\000\000XB\000\000XB\000\000`B\000\000XB\315\314\202B\000\000\204B\000\000\300A\000\000XB\000\000XB\000\000\\B\000\000XB\000\000hB\000\000hB\000\000\200@\000\000XB\000\000XBff^B\000\000XB33sB\000\000\204B\221\355nA\000\000@@\000\000\200@\000\000\240@\000\000\200@\000\000\200?\000\000\000\000\000\000\000\000\000\000\000\000\000\000\000\000\000\000\000\000\000\000\000\000\000\000\000\000\000\000@@\000\000\200@\000`\225D\000\000\200?\000\000\200?\000\000\200?\000\000\200?\000\000\200?\000\000\200?\000\000\000\000\000\000\000\000\000\000\000\000\000\000\000\000\000\000\230B\000\000\230B\315\214\247C\000\000\230B\315\224\201D\000@\277D?\230eH\000\000\230B\000\000\230B\000\000\nC\000\000\236B\000\000\237C\000\000\237C\333\366@F\000\000\230B\000\000\230B\000\200wC\000\000\230Bf\266\tD\000@\277D>o\010H\000\000XB\000\000XB\315\314\\B\000\000XB\315\314hB\000\000\204BfffA\000\000XB\000\000XB\000\000dB\000\000XB\000\000\204B\000\000\204B#\333\366A\000\000XB\000\000XB\000\000`B\000\000XB\000\000\204B\000\000\204Bsh\251A\000\000\300@\000\000\240@\000\000\020A\000\000\000A\000\000\200?\000\000\000\000\000\000\000\000\000\000\000\000\000\000\000\000\000\000\000\000\000\000\000\000\000\000\000\000\000\000\300@\000\000\240@\000p)E\000\000\000@\000\000\000@\000\000\200?\000\000\200?\000\000\200?\000\000\200?\000\000\000\000\000\000\200?\000\000\000\000\000\000\000\000\000\000\230B\000\000\230B\000\300\305C\000\000\244B\000\000JD\000\000JD\263\010\007H\000\000\230B\000\000\230B\370\243WD\000\340\230D\000@\277D\000@\277Dx\232\333H\000\000\230B\000\000\230B\000\2700D\000\240.D\000@\277D\000@\277D \221\276H\000\000XB\000\000XB\000\000aB\000\000XB\000\000\204B\000\000\204B33\273A\000\000XB\000\000XB\000\200YB\000\000XB\000\000XB\000\000\204B\000\000\220@\000\000XB\000\000XB\000\000\\B\000\000XB\000\000XB\000\000\204Bw\2763A\000\000\020A\000\000\260A\000\000pA\000\000\000B\000\000\200?\000\000\200?\000\000\000\000\000\000\000\000\000\000\000\000\000\000\000\000\000\000\000\000\000\000\000\000\000\000\020A\000\000\260A\0000\245E\000\000\340@\000\000PA\000\000\200?\000\000\200?\000\000\000\000\000\000\000\000\000\000\000\000\000\000\200?\000\000\000\000\000\000\000\000\000\000\230B\000\000\230B\315L\200C\000\000\230B\000@sD\000@sD\263\241\034H\000\000\230B\000\000\230B?U*C\000\000\234B\000\200\262C\000\200\262C\252,\314F\000\000\230B\000\000\230B\000@`C\000\000\232B\232Y=D\000@sD\033|\305G\000\000XB\000\000XB\232\231aB\000\000XB\000\000\204B\000\000\204Bff\346A\000\000XB\000\000XB\002\253bB\000\000XB\000\000xB\000\000xB\374\251\252A\000\000XB\000\000XB\000\000bB\000\000XB33\201B\000\000\204Bh\221\264A\000\000@@\000\000@@\000\000\200@\000\000@@\000\000\200?\000\000\000\000\000\000\000\000\000\000\000\000\000\000\000\000\000\000\000\000\000\000\000\000\000\000\000\000\000\000@@\000\000@@\000@oD\000\000\200?\000\000\200?\000\000\200?\000\000\200?\000\000\200?\000\000\200?\000\000\000\000\000\000\000\000\000\000\000\000\000\000\000\000\000\000\230B\000\000\230B\335\364\351C\000\3002D\315LZD\000\300]D(>\021H\000\000\230B\000\200\333CN\222\343C\000\200\013D\000\200\013D\000\200\013D\2541#G\000\000\230B\000\000\230B^\212\347C\000\200\013D\000\200XD\000\300]D\303\017\317G\000\000XB\000\000XB\207\026ZB\000\000XB\000\000XB\000\000\204B\035Z\310@\000\000XB\000\000XB\221m[B\000\000XB\000\000XB\000\000\204Bu\223$A\000\000XB\000\000XB\223\230ZB\000\000XB\000\000XB\000\000\204B\016-\362@\000\000`A\000\000PA\000\000\260A\000\000`A\000\000\200?\000\000\000\000\000\000\000\000\000\000\000\000\000\000\000\000\000\000\000\000\000\000\000\000\000\000\000\000\000\000`A\000\000PA\000x\331E\000\000@A\000\0000A\000\000\200?\000\000\200?\000\000\200?\000\000\200?\000\000\000\000\000\000\200?\000\000\000\000\000\000\000\000\000\000\230B\000\000\230B\234$NC\000\000\244B\0000\004D\000\200\023D]\007\022G\000\000\230B\000\000\230B\000\200\373C\000\000\244B\000\300\262D\000\300\262D\323\322\262H\000\000\230B\000\000\230BHa\250C\000\000\244Bf\3463D\000\300\262D\374\341>H\000\000XB\000\000XB#\333^B\000\000XB\000\000|B\000\000\204By\351\227A\000\000XB\000\000XB/]\\B\000\000XB\232\231aB\000\000\204B\274tQA\000\000XB\000\000XB\217\302]B\000\000XB\315\314\\B\000\000\204B\244p}A\000\000\020A\000\000\300@\000\000PA\000\0000A\000\000\200?\000\000\200?\000\000\000\000\000\000\000\000\000\000\000\000\000\000\000\000\000\000\000\000\000\000\000\000\000\000\020A\000\000\300@\000@\372D\000\000\300@\000\000\200@\000\000\200?\000\000\200?\000\000\200?\000\000\200?\000\000\000\000\000\000\200?\000\000\000\000\000\000\000\000\000\000\230B\000\000\230B\000\000*C\000\000\230B\000\000\007D\000\000\007D\000$\'G\000\000\230B\000\000\230B\000\000\034C\000\000\230B\000\000\353C\000\000\353C\000\304\360F\000\000\230B\000\000\230B\000\000#C\000\000\230B\000@\367C\000\000\007D9\000\000G\000\000XB\000\000XB\232\231aB\000\000XB\000\000\204B\000\000\204Bff\346A\000\000XB\000\000XB\232\231aB\000\000XB\000\000\204B\000\000\204Bff\346A\000\000XB\000\000XB\232\231aB\000\000XB\000\000\204B\000\000\204B\315\314\314A\000\000\200@\000\000\200@\000\000\200@\000\000\240@\000\000\200?\000\000\000\000\000\000\000\000\000\000\000\000\000\000\000\000\000\000\000\000\000\000\000\000\000\000\000\000\000\000\200@\000\000\200@\000\200\010D\000\000\200?\000\000\200?\000\000\200?\000\000\200?\000\000\200?\000\000\200?\000\000\000\000\000\000\200?\000\000\000\000\000\000\000\000\000\000\230B\000\000\230B\000\000GC\000\000\236B\000\200\014D\000\200\014D\000\314dG\000\000\230B\000\000\230B\177\252\360B\000\000\244B\000\000KC\000\000KC\252r\240E\000\000\230B\000\000\230B7I%C\000\000\244B\232\031\365C\000\200\014D$\373\377F\000\000XB\000\000XB\000\000dB\000\000XB\000\000\204B\000\000\204B\000\000\020B\000\000XB\000\000XB\000\000hB\000\000XB\000\000\204B\000\000\204B\000\000@B\000\000XB\000\000XBL\267eB\000\000XB\000\000\204B\000\000\204B\335$\tB\000\000@@\000\000@@\000\000@@\000\000@@\000\000\200?\000\000\000\000\000\000\000\000\000\000\000\000\000\000\000\000\000\000\000\000\000\000\000\000\000\000\000\000\000\000@@\000\000@@\000\200\010D\000\000\200?\000\000\200?\000\000\200?\000\000\200?\000\000\000\000\000\000\000\000\000\000\000\000\000\000\200?\000\000\000\000\000\000\000\000\000\000\244B\000\000\244B\315\3145C\000\000\244B\000@\016D\000@\016D3\0367G\000\000\244B\000\000\244B\000\200\177C\000\000\254B\000\000@D\000\000@D+\007\344G\000\000\244B\000\000\244BV\216VC\000\000\244B\000 \'D\000\000@D\244<\206G\000\000\204B\000\000\204B\315\314\210B\000\000\204B\000\000\234B\000\000\234Bff\346A\000\000\204B\000\000\204B\000\000\210B\000\000\204B\000\000\224B\000\000\224B\000\000\200A\000\000\204B\000\000\204B\252q\210B\000\000\204B\000\000\230B\000\000\234BP\215\243A\000\000@@\000\000\200@\000\000\200@\000\000\200@\000\000\000\000\000\000\000\000\000\000\000\000\000\000\000\000\000\000\000\000\000\000\000\000\000\000\000\000\000\000\000\000\000\000@@\000\000\200@\000\300\005D\000\000\200?\000\000\200?\000\000\200?\000\000\200?\000\000\200?\000\000\200?\000\000\200?\000\000\200?\000\000\000\000\000\000\000\000\000\000\230B\000\000\230B\232Y\304C\000\200/Cf\356\215D\000@\277Dd\002fH\000\000\230B\000\000\236B\325\270\355C\000\000\021C\000@\277D\000@\277D\001\305\265H\000\000\230B\000\000\230B\217\362\327C\000\000\021C\000@\277D\000@\277D\'+\213H\000\000XB\000\000XB\315\314\\B\000\000XB\315\314hB\000\000\204BfffA\000\000XB\000\000XB\376T]B\000\000XB\000\000pB\000\000\204B\000\000\200A\000\000XB\000\000XBP\r]B\000\000XB\000\000XB\000\000\204BV\016eA\000\000\340@\000\000\340@\000\000\020A\000\000\020A\000\000\200?\000\000\000\000\000\000\000\000\000\000\000\000\000\000\000\000\000\000\000\000\000\000\000\000\000\000\000\000\000\000\340@\000\000\340@\000\320NE\000\000\200@\000\000\200@\000\000\200?\000\000\200?\000\000\000\000\000\000\000\000\000\000\000\000\000\000\200?\000\000\000\000\000\000\000\000\000\000\230B\000\000\230B\232\231\345B\000\000\230B\000\000\206C\000\000\206C\2329\345E\000\000\230B\000\000\230B\000\000\342B\000\000\232B\000\000^C\000\000^C\252\n\245E\000\000\230B\000\000\230B\000\000\344B\000\000\230B\000\000uC\000\000\206C\000\210\260E\000\000XB\000\000XBff^B\000\000XB\000\000xB\000\000xB\315\314LA\000\000XB\000\000XB\000\000`B\000\000XB\000\000xB\000\000xB\000\000\200A\000\000XB\000\000XB\254\034_B\000\000XB\000\000xB\000\000xB\240\032GA\000\000\200@\000\000@@\000\000\200@\000\000\200@\000\000\200?\000\000\000\000\000\000\000\000\000\000\000\000\000\000\000\000\000\000\000\000\000\000\000\000\000\000\000\000\000\000\200@\000\000@@\000\000\211C\000\000\200?\000\000\200?\000\000\200?\000\000\200?\000\000\200?\000\000\200?\000\000\000\000\000\000\000\000\000\000\000\000\000\000\000\000\000\000\230B\000\000\230Bff|C\000\000\230B\000\000nD\000\000nD3_\025H\000\000\230B\000\000\230B\000\200\246C\000\000\236B\000@\211D\000@\211D\000\003~H\000\000\230B\000\000\230Bj\034\220C\000\000\230B\000 \200D\000@\211D\334\263+H\000\000XB\000\000XB\232\231aB\000\000XB\000\000\204B\000\000\204Bff\346A\000\000XB\000\000XB\000\000dB\000\000XB\000\000\204B\000\000\204B\000\000\020B\000\000XB\000\000XB\002\253bB\000\000XB\000\000\204B\000\000\204B\000\000\340A\000\000@@\000\000@@\000\000\200@\000\000\200@\000\000\200?\000\000\000\000\000\000\000\000\000\000\000\000\000\000\000\000\000\000\000\000\000\000\000\000\000\000\000\000\000\000@@\000\000@@\000\000jD\000\000\200?\000\000\000\000\000\000\200?\000\000\200?\000\000\200?\000\000\200?\000\000\000\000\000\000\200?\000\000\000\000\000\000\000\000\000\000\230B\000\000\230B\240*\304C\000\000\236Bff\264D\000@\272D\342\357\236H\000\000\230B\000\000\230B3\263\242C\000\000\230B\000\240\244D\000\240\244D\332\t\226H\000\000\230B\000\000\230BZ\364\264C\000\000\230B3\363\250D\000@\272D\235\024\214H\000\000XB\000\000XB\000\000`B\000\000XB\315\314\202B\000\000\204B\000\000\300A\000\000XB\000\000XB\232\231aB\000\000XB\000\000\204B\000\000\204Bff\346A\000\000XB\000\000XB^\272`B\000\000XB\000\000\204B\000\000\204B\022\203\274A\000\000\200@\000\000@@\000\000\240@\000\000\240@\000\000\200?\000\000\000\000\000\000\000\000\000\000\000\000\000\000\000\000\000\000\000\000\000\000\000\000\000\000\000\000\000\000\200@\000\000@@\000\300\366D\000\000\200?\000\000\000\000\000\000\200?\000\000\200?\000\000\200?\000\000\200?\000\000\000\000\000\000\200?\000\000\000\000\000\000\000\000\000\000\230B\000\000\230B\232\231\013C\000\000\230B33\303C\000\200\304C\3720\211F\000\000\230B\000@\277D7\341\242D\000@\277D\000@\277D\000@\277D\316Z\202H\000\000\230B\000\000\233B\033\367tD\000@\277D\000@\277D\000@\277D\275\262\347H\000\000XB\000\000XB\315\314\\B\000\000XB\315\314hB\000\000\204BfffA\000\000XB\000\000XB\027\331YB\000\000XB\000\000XB\000\000\204BL7\261@\000\000XB\000\000XB\002\253ZB\000\000XB\000\000XB\000\000\204B\010\254\370@\000\000\200@\000\000\300A\000\000\020A\000\000\320A\000\000\200?\000\000\000\000\000\000\000\000\000\000\000\000\000\000\000\000\000\000\000\000\000\000\000\000\000\000\000\000\000\000\200@\000\000\300A\000\0002D\000\000\000@\000\000\000@\000\000\200?\000\000\200?\000\000\000\000\000\000\000\000\000\000\000\000\000\000\200?\000\000\000\000\000\000\000\000\000\000\230B\000\000\230B\301\252HC\000\000\230B\000\200\036D\000\200zD1\276\316G\000\000\230B\000\000\230B\230\026\026D\000\000\244B\000@\277D\000@\277DT\353\364H\000\000\230B\000\000\230B\000\200\316C\000\000\236B\000@\277D\000@\277D\214\315\251H\000\000XB\000\000XB\232\231aB\000\000XB\000\000\204B\000\000\204B\356|\305A\000\000XB\000\000XB\325x`B\000\000XB\000\000\204B\000\000\204BH\341\261A\000\000XB\000\000XB\000\000aB\000\000XB\000\000\204B\000\000\204B\366(\265A\000\000\340@\000\000`A\000\000PA\000\000\210A\000\000\000@\000\000\200@\000\000\000\000\000\000\000\000\000\000\000\000\000\000\000\000\000\000\000\000\000\000\000\000\000\000\340@\000\000`A\000@\371D\000\000\000@\000\000\000@\000\000\000@\000\000@@\000\000\000@\000\000\000@\000\000\000\000\000\000@@\000\000\000\000\000\000\000\000\000\000\230B\000\000\230B\301\252\027C\000\000\230B3\363\372C\000\000\003Dx\375\001G\000\000\230B\000\000\230B\000\200\251C\000\000\236B\000@\214D\000@\214D\200\r\205H\000\000\230B\000\000\230B\232\231bC\000\000\230B3S7D\000@\214D?\312\347G\000\000XB\000\000XB\000\000`B\000\000XB\315\314\202B\000\000\204B\000\000\300A\000\000XB\000\000XB\000\000dB\000\000XB\000\000\204B\000\000\204B\000\000\020B\000\000XB\000\000XB\232\231aB\000\000XB\000\000\204B\000\000\204B\315\314\314A\000\000\200@\000\000@@\000\000\240@\000\000\200@\000\000\200?\000\000\000\000\000\000\000\000\000\000\000\000\000\000\000\000\000\000\000\000\000\000\000\000\000\000\000\000\000\000\200@\000\000@@\000\200\004D\000\000\200?\000\000\200?\000\000\200?\000\000\200?\000\000\200?\000\000\200?\000\000\000\000\000\000\200?\000\000\000\000\000\000\000\000\000\000\244B\000\000\244B%\006\251B\000\000\244B\000\000\244B\000\0006C7)iC\000\000\244B\000@\277D\207R\261D\000@\277D\000@\277D\000@\277Dy\227\007H\000\000\244B\000\000\244B\205;SD\000@\277D\000@\277D\000@\277D-\213\375H\000\000\204B\000\000\204B;_\204B\000\000\204B\000\000\204B\000\000\224B\311v\276?\000\000\204B\000\000\204B\256G\204B\000\000\204B\000\000\204B\000\000\224Bw\276\217?\000\000\204B\000\000\204B\354Q\204B\000\000\204B\000\000\204B\000\000\224B\016-\242?\000\000\200@\000\000`B\000\000(B\000\000dB\000\000\000\000\000\000\000\000\000\000\000\000\000\000\000\000\000\000\000\000\000\000\000\000\000\000\000\000\000\000\000\000\000\000\200@\000\000`B\000\000$C\000\000\200?\000\000@@\000\000\200?\000\000\200?\000\000\200?\000\000\200?\000\000\200?\000\000\200?\000\000\000\000\000\000\000\000\000\000\230B\000\000\230B\311\266\033C\000\000\230B\000\200\000D\000\200\033D\222,%G\000\000\230B\000\000\230B\262-\023D\000\000\244B\000@\277D\000@\277D\010m\347H\000\000\230B\000\000\230Bd\033\272C\000\000\236B\000\350\246D\000@\277D\025\375\214H\000\000XB\000\000XBL\267eB\000\000XB\000\000\204B\000\000\204B\335$\tB\000\000XB\000\000XB#\333^B\000\000XBff~B\000\000\204Bh\221\244A\000\000XB\000\000XB\264HbB\000\000XB\000\000\204B\000\000\204BH\341\320A\000\000@@\000\000\240@\000\000\300@\000\000\340@\000\000\000@\000\000\000\000\000\000\000\000\000\000\000\000\000\000\000\000\000\000\000\000\000\000\000\000\000\000\000\000\000\000@@\000\000\240@\000\000\026D\000\000\200?\000\000\200?\000\000\200?\000\000\200?\000\000\200?\000\000\200?\000\000\000\000\000\000\200?\000\000\000\000\000\000\000\000\000\000\230B\000\000\230B\000\000\024C\000\000\230B\000\000\310C\000\2003D\000}2G\000\000\230B\000\000\244B\000@\310B\000\000\244Bf&4C\000\000iC\266o4E\000\000\230B\000\000\230B\'\361\372B\000\000\244B\232\231\376B\000\2003D\210\030\301F\000\000XB\000\000XB\376T]B\000\000XB\000\000pB\000\000\204B\000\000\200A\000\000XB\000\000dB\000\000|B\000\000\204B\000\000\204B\000\000\204B#\333\366A\000\000XB\000\000XB\226\303kB\000\000XB\000\000\204B\000\000\204Bj<\024B\000\000\200@\000\000@@\000\000\000A\000\000\000A\000\000\200?\000\000\000\000\000\000\000\000\000\000\000\000\000\000\000\000\000\000\000\000\000\000\000\000\000\000\000\000\000\000\200@\000\000@@\000\0005D\000\000\200?\000\000\200?\000\000\200?\000\000\200?\000\000\000\000\000\000\000\000\000\000\000\000\000\000\200?\000\000\000\000\000\000\000\000\000\000\230B\000\000\230B\311\306\263C\000\000\230B3\263hD\000\200\273D\351\346EH\000\000\230B\000\000\275B7\261LD\000\340\236D\000\200\261D\000\200\273D\255\007\304H\000\000\230B\000\000\230B\370\203\034D\000\300\240C\000\200\261D\000\200\273D\016V\263H\000\000XB\000\000XB\037\005YB\000\000XB\000\000XB\000\000\204B\223\030D@\000\000XB\000\000XB\333yYB\000\000XB\000\000XB\000\000\204B\201\225\213@\000\000XB\000\000XB\264HYB\000\000XB\000\000XB\000\000\204B\230nr@\000\000\310A\000\000HB\000\0008B\000\000\202B\000\000\200?\000\000\240@\000\000\000\000\000\000\000\000\000\000\000\000\000\000\000\000\000\000\000\000\000\000\000\000\000\000\310A\000\000HB\000PQF\000\000\220A\000\000@B\000\000\200?\000\000\200?\000\000\000\000\000\000\000\000\000\000\000\000\000\000\200?\000\000\000\000\000\000\000\000\000\000\230B\000\000\230B\3258\026C\000\000\230B\000\000\312C\000\000\350C\343\316\250F\000\000\230B\000\000\230BN\022/D\000\200qDf&\264D\000@\277D\022\207\264H\000\000\230B\000\000\230B\000p\303C\000\000\244B\000\300\207D\000@\277D2=iH\000\000XB\000\000XB\002\253bB\000\000XB\000\000\204B\000\000\204B\000\000\340A\000\000XB\000\000XB#\333^B\000\000XBff~B\000\000\204Bh\221\244A\000\000XB\000\000XB\000\000aB\000\000XB\000\000\204B\000\000\204B33\273A\000\000\240@\000\000\240@\000\000\000A\000\000\340@\000\000\200?\000\000\000\000\000\000\000\000\000\000\000\000\000\000\000\000\000\000\000\000\000\000\000\000\000\000\000\000\000\000\240@\000\000\240@\000\000>D\000\000\000@\000\000@@\000\000\200?\000\000\200?\000\000\200?\000\000\200?\000\000\000\000\000\000\200?\000\000\000\000\000\000\000\000\000\000\230B\000\000\230B\232\031_C\000\000\230BfVGD\000\200GD\267\020\263G\000\000\230B\000\000\230B\000\200*C\000\000\230B\000\000\343C\000\000\343C\0004\357F\000\000\230B\000\000\230B\325\270GC\000\000\230B\232\271\374C\000\200GD\372\253qG\000\000XB\000\000XB\000\000hB\000\000XB\000\000\224B\000\000\224B\3258\216B\000\000XB\000\000XB\000\000\\B\000\000XB\000\000hB\000\000hB\274t[@\000\000XB\000\000XB\002\253bB\000\000XB\232\231qB\000\000\224B\343\245%B\000\000\300@\000\000\000A\000\000\000A\000\000\000A\000\000\000\000\000\000\000\000\000\000\000\000\000\000\000\000\000\000\000\000\000\000\000\000\000\000\000\000\000\000\000\000\000\000\300@\000\000\000A\000`\303D\000\000\000@\000\000\000@\000\000\000@\000\000\000@\000\000\000@\000\000\000@\000\000\000@\000\000\000\000\000\000\000\000\000\000\000\000\000\000\230B\000\000\230B-\242\354C\000\000\244B\000@\265D\000@\265D\247\\\270H\000\000\230B\000\000\230B\333\t\311C\000\000\244B\000\200\262D\000@\265D\202^\232H\000\000\230B\000\000\230Bd\033\334C\000\000\244B\000@\265D\000@\265D\206\327\244H\000\000XB\000\000XBff^B\000\000XB\315\314tB\000\000\204B\313\241\216A\000\000XB\000\000XBNb_B\000\000XB\232\231\201B\000\000\204B\311v\242A\000\000XB\000\000XB#\333^B\000\000XB33wB\000\000\204B\272I\222A\000\000 A\000\000 A\000\000PA\000\000PA\000\000@@\000\000\200?\000\000\000\000\000\000\000\000\000\000\000\000\000\000\000\000\000\000\000\000\000\000\000\000\000\000 A\000\000 A\000X\300E\000\000\000@\000\000@@\000\000\000@\000\000\000@\000\000\000@\000\000\000@\000\000\000\000\000\000\000@\000\000\000\000\000\000\000\000\000\000\230B\000\000\230B\000`\256C\000\000\230B\2329\234D\000@\265D\376\n\207H\000\000\230B\000\000\230B\315\214\004D\000\000\350B\000@\265D\000@\265D)\353\311H\000\000\230B\000\000\230B+\307\340C\000\000\236B\000@\265D\000@\265D\371\264\246H\000\000XB\000\000XB\000\000^B\000\000XB33wB\000\000\204B\000\000\220A\000\000XB\000\000XB\315\314\\B\000\000XB\315\314hB\000\000\204BfffA\000\000XB\000\000XB\376T]B\000\000XB33_B\000\000\204B\252\361pA\000\000\200@\000\000\000A\000\000\340@\000\000 A\000\000\000@\000\000@@\000\000\000\000\000\000\000\000\000\000\000\000\000\000\000\000\000\000\000\000\000\000\000\000\000\000\200@\000\000\000A\000 \rE\000\000\200?\000\000\000@\000\000\200?\000\000\200?\000\000\200?\000\000\200?\000\000\000\000\000\000\200?\000\000\000\000\000\000\000\000\000\000\230B\000\000\230BuS\266B\000\000\230B\000\000\230B\000\300\216Dh\tzF\000\000\230B\000@\277D\307\377\273D\000@\277D\000@\277D\000@\277D\235v\006G\000\000\230B\000\000\230B\250\n\204D\000@\277D\000@\277D\000@\277DSa\341H\000\000XB\000\000XB\nWXB\000\000XB\000\000XB\000\000\204B!\260\202?\000\000XB\000\000XB\360\'XB\000\000XB\000\000XB\000\000\204B!\260\362>\000\000XB\000\000XBL7XB\000\000XB\000\000XB\000\000\204BB`%?\000\000\200@\000\200\227C\000\000\014C\000\000\230C\000\000\000@\000\000\000\000\000\000\000\000\000\000\000\000\000\000\000\000\000\000\000\000\000\000\000\000\000\000\000\000\000\000\200@\000\200\227C\000`\nE\000\000\000@\000\000\020A\000\000\200?\000\000\200?\000\000\200?\000\000\200?\000\000\000\000\000\000\200?\000\000\000\000\000\000\000\000\000\000\230B\000\000\230B\000@\374B\000\000\230B3\323\210C\000\000\211C\245Y\001F\000\000\230B\000\000\230B\331vVD\000\000\247D\000\200\273D\000\200\273D\215\247\002I\000\000\230B\000\000\230B\315\314\351C\000\000\244B\000@\270D\000\200\273Dv\272\267H\000\000XB\000\000XB\000\000^B\000\000XB33wB\000\000\204B\000\000\220A\000\000XB\000\000XB#\333^B\000\000XBff~B\000\000\204Bh\221\244A\000\000XB\000\000XBff^B\000\000XB\315\314tB\000\000\204B\313\241\216A\000\000\240@\000\000\300@\000\000\340@\000\000\340@\000\000\200?\000\000\000\000\000\000\000\000\000\000\000\000\000\000\000\000\000\000\000\000\000\000\000\000\000\000\000\000\000\000\240@\000\000\300@\000\200\371C\000\000\000@\000\000\000@\000\000\200?\000\000\200?\000\000\200?\000\000\200?\000\000\000\000\000\000\200?\000\000\000\000\000\000\000\000\000\000\230B\000\000\230B\000\300\231C\000\000\236B\000\270\214D\000@\277D%\317xH\000\000\230B\000\000\230Bf&3D\000\000\270C\000@\277D\000@\277D\001\236\370H\000\000\230B\000\000\230B\313\261\005D\000\000\373B\000@\277D\000@\277D\0066\314H\000\000XB\000\000XB\000\000^B\000\000XB33wB\000\000\204B\000\000\220A\000\000XB\000\000XB\315\314\\B\000\000XB\315\314hB\000\000\204BfffA\000\000XB\000\000XB\376T]B\000\000XB33_B\000\000\204B\252\361pA\000\000\240@\000\000\340@\000\000\340@\000\000 A\000\000\200?\000\000\000\000\000\000\000\000\000\000\000\000\000\000\000\000\000\000\000\000\000\000\000\000\000\000\000\000\000\000\240@\000\000\340@\000\300\363D\000\000\000@\000\000\200?\000\000\200?\000\000\200?\000\000\000\000\000\000\000\000\000\000\000\000\000\000\000\000\000\000\000\000\000\000\000\000\000\000\244B\000\000\244B\000`\230C\000\000\260B\000\030\212D\000@\277D\305\324uH\000\000\244B\000\000\244BN\322\006D\000\000\254B\000@\277D\000@\277DH\203\345H\000\000\244B\000\000\244B\232\031\317C\000\000\254B\000@\277D\000@\277D\230\373\246H\000\000\204B\000\000\204B\000\000\207B\000\000\204B\232\231\223B\000\000\234B\000\000\220A\000\000\204B\000\000\204BZ$\205B\000\000\204Bff\212B\000\000\214B\323M\022@\000\000\204B\000\000\204BN\"\206B\000\000\204B\315\314\210B\000\000\234B)\\#A\000\000\240@\000\000\240@\000\000\340@\000\000\340@\000\000\000\000\000\000\000\000\000\000\000\000\000\000\000\000\000\000\000\000\000\000\000\000\000\000\000\000\000\000\000\000\000\000\240@\000\000\240@\000@\347D\000\000\000@\000\000\200?\000\000\200?\000\000\200?\000\000\200?\000\000\200?\000\000\200?\000\000\200?\000\000\000\000\000\000\000\000\000\000\230B\000\000\230Bh\321PC\000\000\230B\000\300GD\000\300JD\257\336\250G\000\000\230B\000\000\230B`5\330C\000\000\236B\000@\277D\000@\277Dq\243\233H\000\000\230B\000\000\230B/\275\242C\000\000\230B3\363PD\000@\277D9\301NH\000\000XB\000\000XB/]\\B\000\000XB\232\231aB\000\000\204B\274tQA\000\000XB\000\000XB\000\000\\B\000\000XBffZB\000\000\204B\000\000@A\000\000XB\000\000XB\010,\\B\000\000XB\000\000XB\000\000\204B}??A\000\000\200@\000\000\020A\000\000 A\000\000@A\000\000\200?\000\000\000@\000\000\000\000\000\000\000\000\000\000\000\000\000\000\000\000\000\000\000\000\000\000\000\000\000\000\200@\000\000\020A\000 \300D\000\000\000@\000\000@@\000\000\200?\000\000\200?\000\000\200?\000\000\200?\000\000\000\000\000\000\200?\000\000\000\000\000\000\000\000\000\000\244B\000\000\244B\201U\313B\000\000\244Bf\346:C\000\000@CX\025\366D\000\000\244B\000\000\244B\000\000\"C\000\000\254B\000\000\305C\000\000\305C\000\000\273F\000\000\244B\000\000\244B\232\231\373B\000\000\244B\232Y\203C\000\000\305CE\354\034F\000\000\204B\000\000\204B\177\252\206B\000\000\204B33\223B\000\000\224B\010\254*A\000\000\204B\000\000\204B\000\000\210B\000\000\204B\000\000\224B\000\000\224B\000\000\200A\000\000\204B\000\000\204B33\207B\000\000\204B\000\000\224B\000\000\224BJ\0146A\000\000\200@\000\000@@\000\000\240@\000\000\200@\000\000\000\000\000\000\000\000\000\000\000\000\000\000\000\000\000\000\000\000\000\000\000\000\000\000\000\000\000\000\000\000\000\000\200@\000\000@@\000\000.C\000\000\200?\000\000\200?\000\000\200?\000\000\200?\000\000\200?\000\000\200?\000\000\200?\000\000\200?\000\000\000\000\000\000\000\000\000\000\230B\000\000\230B\370\323\276B\000\000\326B\000\000\326B\000\000\306C\262\025eD\000\000\230B\000\000\326B\347{\nC\000\000\326B\000\000\326B\000@\277D;D(G\000\000\230B\000\000\230Bu\323\335B\000\000\326B\000\000\326B\000@\277D\2654\200F\000\000XB\000\000XB\321\"YB\000\000XB\000\000XB\000\000\204B?5V@\000\000XB\000\000XBD\013\\B\000\000XB\000\000XB\000\000\204Bh\2213A\000\000XB\000\000XB\024.ZB\000\000XB\000\000XB\000\000\204B9\264\310@\000\000\244B\000\000\244B\000\000(C\000\000\276B\000\000\200?\000\000\240@\000\000\000\000\000\000\000\000\000\000\000\000\000\000\000\000\000\000\000\000\000\000\000\000\000\000\244B\000\000\244B\000H\216E\000\000\260B\000\000\242B\000\000\200?\000\000\200?\000\000\000@\000\000\200?\000\000\000\000\000\000\200?\000\000\000\000\000\000\000\000\000\000\230B\000\000\230B\240\252\247C\000\000\236B3\303\266D\000@\277D\"\364\247H\000\000\230B\000\000\230B\315\314\355C\000\000\244B\000@\277D\000@\277DZ\362\303H\000\000\230B\000\000\230B\246\213\307C\000\000\244B\000@\277D\000@\277D\275\371\244H\000\000XB\000\000XB\000\000`B\000\000XB\315\314\202B\000\000\204B\000\000\300A\000\000XB\000\000XB\232\231aB\000\000XB\000\000\204B\000\000\204Bff\346A\000\000XB\000\000XB^\272`B\000\000XB\000\000\204B\000\000\204B\022\203\274A\000\000\200@\000\000\200@\000\000\240@\000\000\200@\000\000\200?\000\000\000\000\000\000\000\000\000\000\000\000\000\000\000\000\000\000\000\000\000\000\000\000\000\000\000\000\000\000\200@\000\000\200@\000\000\314D\000\000\200?\000\000\000\000\000\000\200?\000\000\200?\000\000\200?\000\000\200?\000\000\000\000\000\000\200?\000\000\000\000\000\000\000\000\000\000\244B\000\000\244B\301\352@C\000\000\244B\232\351\014D\000\200\031D\376\200\023G\000\000\244B\000\000\250B\000`\363C\000\000\253C\232\271\231D\000\200\273Di\023iH\000\000\244B\000\000\244B\2329\233C\000\000\264B\232\2711D\000\200\273D\021\205\000H\000\000\204B\000\000\204B\201U\205B\000\000\204B\315\314\204B\000\000\224B\360\247\252@\000\000\204B\000\000\204B\000\000\206B\000\000\204Bff\216B\000\000\224B\000\000\000A\000\000\204B\000\000\204B\232\231\205B\000\000\204B\000\000\204B\000\000\224B\031\004\302@\000\000\340@\000\000\340@\000\0000A\000\000\000A\000\000\000\000\000\000\000\000\000\000\000\000\000\000\000\000\000\000\000\000\000\000\000\000\000\000\000\000\000\000\000\000\000\000\340@\000\000\340@\000`\263D\000\000\200@\000\000\200@\000\000\200?\000\000\200?\000\000\200?\000\000\200?\000\000\200?\000\000\200?\000\000\000\000\000\000\000\000\000\000\230B\000\000\230B\177\252\362B\000\000\236B\000\200\226C\000\200\226C\230\246\334E\000\000\230B\000\000\230B\000\000\304B\000\000\230B33+C\000\000KCf\326\367D\000\000\230B\000\000\230B\272\211\331B\000\000\230B\000\000KC\000\200\226Cu\251\207E\000\000XB\000\000XB\000\000`B\000\000XB\000\000\204B\000\000\204Bsh\251A\000\000XB\000\000XB#\333^B\000\000XB\232\231yB\000\000\204B\254\034\224A\000\000XB\000\000XBNb_B\000\000XB\000\000\204B\000\000\204By\351\231A\000\000@A\000\000pA\000\000pA\000\000\250A\000\000@@\000\000\000\000\000\000\000\000\000\000\000\000\000\000\000\000\000\000\000\000\000\000\000\000\000\000\000\000\000\000@A\000\000pA\000\200\202D\000\000\300@\000\000\300@\000\000@@\000\000@@\000\000@@\000\000@@\000\000\000\000\000\000@@\000\000\000\000\000\000\000\000\000\000\230B\000\000\230B`\325\324C\000\000\236Bf&\272D\000@\277D\342\221\256H\000\000\230B\000\000\230Bff\362B\000\000\230B\000\000\227C\000\000\227C\315\234\037F\000\000\230B\000\000\230B\362\242\217C\000\000\230B\315L[D\000@\277D\333?KH\000\000XB\000\000XB\000\000`B\000\000XB\315\314\202B\000\000\204B\000\000\300A\000\000XB\000\000XB33[B\000\000XB\000\000hB\000\000hB\315\314L@\000\000XB\000\000XB\354\321]B\000\000XBffnB\000\000\204B\234\304ZA\000\000\200@\000\000\200@\000\000\240@\000\000\240@\000\000\200?\000\000\000\000\000\000\000\000\000\000\000\000\000\000\000\000\000\000\000\000\000\000\000\000\000\000\000\000\000\000\200@\000\000\200@\000\340\007E\000\000\200?\000\000\200?\000\000\200?\000\000\200?\000\000\200?\000\000\200?\000\000\000\000\000\000\000\000\000\000\000\000\000\000\000\000\000\000\230B\000\000\230B\230.DC\000\000\244B\232\231\371C\000\000\000D\272B\374F\000\000\230B\000\000\230B\362\242\370C\000\000\326B\000@\277D\000@\277Da\313\263H\000\000\230B\000\000\230B\016]\255C\000\000\275B\232\371cD\000@\277D]oQH\000\000XB\000\000XB/]\\B\000\000XB\232\231aB\000\000\204B\274tQA\000\000XB\000\000XB/]\\B\000\000XB\232\231aB\000\000\204B\274tQA\000\000XB\000\000XB/]\\B\000\000XB\000\000XB\000\000\204B\356|GA\000\000\000A\000\000\020A\000\000 A\000\0000A\000\000\200?\000\000\000\000\000\000\000\000\000\000\000\000\000\000\000\000\000\000\000\000\000\000\000\000\000\000\000\000\000\000\000A\000\000\020A\000\300\271D\000\000\240@\000\000\200@\000\000\200?\000\000\200?\000\000\200?\000\000\200?\000\000\000\000\000\000\200?\000\000\000\000\000\000\000\000\000\000\230B\000\000\230B\000\200DC\000\000\236B\000\000\nD\000\000\nD\000q[G\000\000\230B\000\000\230B?U,C\000\000\244B\000\200\263C\000\200\263C\252<\314F\000\000\230B\000\000\230B\234$:C\000\000\244B\232Y\000D\000\000\nDzi\020G\000\000XB\000\000XB\000\000dB\000\000XB\000\000\204B\000\000\204B\000\000\020B\000\000XB\000\000XB\000\000hB\000\000XB\000\000\204B\000\000\204B\000\000@B\000\000XB\000\000XBL\267eB\000\000XB\000\000\204B\000\000\204B\335$\tB\000\000@@\000\000@@\000\000@@\000\000@@\000\000\200?\000\000\000\000\000\000\000\000\000\000\000\000\000\000\000\000\000\000\000\000\000\000\000\000\000\000\000\000\000\000@@\000\000@@\000\000\006D\000\000\200?\000\000\200?\000\000\200?\000\000\200?\000\000\000\000\000\000\000\000\000\000\000\000\000\000\200?\000\000\000\000\000\000\000\000\000\000\230B\000\000\230B%\206\\D\000\320\204D\000\300\262D\000\300\262D\252\311\255H\000\000\230B\000\000\230BT\203CD\000\000=D\000\300\262D\000\300\262D\026G\315H\000\000\230B\000\000\230B\024VOD\000\340nD\000\300\262D\000\300\262D\321\343\275H\000\000XB\000\000XB\213\354XB\000\000XB\000\000XB\000\000\204BL71@\000\000XB\000\000XB\370\323XB\000\000XB\000\000XB\000\000\204By\351\036@\000\000XB\000\000XB;\337XB\000\000XB\000\000XB\000\000\204B\031\004&@\000\000\030B\000\000 B\000\000LB\000\000hB\000\000\000A\000\000\300@\000\000\000\000\000\000\000\000\000\000\000\000\000\000\000\000\000\000\000\000\000\000\000\000\000\000\030B\000\000 B\000Y\036G\000\000PA\000\000\210A\000\000\200?\000\000\200?\000\000\000\000\000\000\000\000\000\000\000\000\000\000\200?\000\000\000\000\000\000\000\000\000\000\230B\000\000\230B\313q\003D\000\200\354C3[\203D\000\240\214DOMTH\000\000\230B\000\000\230BN\022\366C\000\000\230B\000\320\216D\000 \234D\350\212zH\000\000\230B\000\000\230B`\325\375C\000\000\244B\000`\205D\000 \234D\237\037cH\000\000XB\000\000XB\002\253ZB\000\000XB\000\000XB\000\000\204B\000\000\000A\000\000XB\000\000XB\264HZB\000\000XB\000\000XB\000\000\204B\213l\333@\000\000XB\000\000XB\303uZB\000\000XB\000\000XB\000\000\204B{\024\346@\000\0000A\000\000@A\000\000\210A\000\000\250A\000\000\000@\000\000@@\000\000\000\000\000\000\000\000\000\000\000\000\000\000\000\000\000\000\000\000\000\000\000\000\000\0000A\000\000@A\000\220\353E\000\000\020A\000\000\020A\000\000\200?\000\000\200?\000\000\200?\000\000\200?\000\000\000\000\000\000\200?\000\000\000\000\000\000\000\000\000\000\244B\000\000\244B\000\000\037C\000\000\244B\000\200\345C\000\200\345C\000\322\333F\000\000\244B\000\000\244B\000@BC\000\000\254B\000\300\002D\000\300\002D@\260;G\000\000\244B\000\000\244B\301\252.C\000\000\244B\000\200\365C\000\300\002D\200_\375F\000\000\204B\000\000\204B33\207B\000\000\204B\000\000\224B\000\000\224B\315\314LA\000\000\204B\000\000\204B\000\000\210B\000\000\204B\000\000\224B\000\000\224B\000\000\200A\000\000\204B\000\000\204BV\216\207B\000\000\204B\000\000\224B\000\000\224B\240\032GA\000\000@@\000\000\200@\000\000\200@\000\000\200@\000\000\000\000\000\000\000\000\000\000\000\000\000\000\000\000\000\000\000\000\000\000\000\000\000\000\000\000\000\000\000\000\000\000@@\000\000\200@\000\200\324C\000\000\200?\000\000\200?\000\000\200?\000\000\200?\000\000\200?\000\000\200?\000\000\200?\000\000\200?\000\000\000\000\000\000\000\000\000\000\230B\000\000\230B\372>\347B\000\000\230B\000\000\230B\000`\214Dor\036G\000\000\230B\000@\277D\211\025\270D\000@\277D\000@\277D\000@\277Dv\237\230G\000\000\230B\000\000\230B\303!\213D\000@\277D\000@\277D\000@\277Dz1\321H\000\000XB\000\000XBm\347XB\000\000XB\000\000XB\000\000\204BT\343-@\000\000XB\000\000XB\370SXB\000\000XB\000\000XB\000\000\204BH\341z?\000\000XB\000\000XB\341zXB\000\000XB\000\000XB\000\000\204B\213l\267?\000\000\200@\000\000\022C\000\000PB\000\000\023C\000\000\200?\000\000\000\000\000\000\000\000\000\000\000\000\000\000\000\000\000\000\000\000\000\000\000\000\000\000\000\000\000\000\200@\000\000\022C\000\000\010E\000\000\000@\000\000\240@\000\000\200?\000\000\200?\000\000\200?\000\000\200?\000\000\000\000\000\000\200?\000\000\000\000\000\000\000\000\000\000\230B\000\000\230B\000@\302C\000\000\236B\232\301\270D\000@\277D\375\016\246H\000\000\230B\000\000\230B\000\300rC\000\000\236B\000@8D\000@8D \021\324G\000\000\230B\000\000\230B\232\031\245C\000\000\236B3\243}D\000@\277D\322baH\000\000XB\000\000XB\000\000`B\000\000XB\315\314\202B\000\000\204B\000\000\300A\000\000XB\000\000XB\000\000dB\000\000XB\000\000\204B\000\000\204B\000\000\020B\000\000XB\000\000XB\232\231aB\000\000XB\000\000\204B\000\000\204B\315\314\314A\000\000\200@\000\000@@\000\000\240@\000\000\200@\000\000\200?\000\000\000\000\000\000\000\000\000\000\000\000\000\000\000\000\000\000\000\000\000\000\000\000\000\000\000\000\000\000\200@\000\000@@\000\340\363D\000\000\200?\000\000\000\000\000\000\200?\000\000\200?\000\000\200?\000\000\200?\000\000\000\000\000\000\200?\000\000\000\000\000\000\000\000\000\000\230B\000\000\230B\000\000&C\000\000\230Bff\007C\000\300\217D/\216\273G\000\000\230B\000\200WCX\025\216D\000@\277D\000@\277D\000@\277D\361\272\320H\000\000\230B\000\000\230B\232\031;D\000\000+C\000@\277D\000@\277D\177]\376H\000\000XB\000\000XB\000\000\\B\000\000XBffZB\000\000\204B\000\000@A\000\000XB\000\000XB\002\253ZB\000\000XB\000\000XB\000\000\204B\000\000\000A\000\000XB\000\000XB33[B\000\000XB\000\000XB\000\000\204B\323M\024A\000\000@@\000\000\210A\000\0000A\000\000\220A\000\000\200?\000\000\000\000\000\000\000\000\000\000\000\000\000\000\000\000\000\000\000\000\000\000\000\000\000\000\000\000\000\000@@\000\000\210A\000\300\215D\000\000\200?\000\000\200?\000\000\200?\000\000\200?\000\000\200?\000\000\200?\000\000\000\000\000\000\200?\000\000\000\000\000\000\000\000\000\000\230B\000\000\230B\301\252\\C\000\000\230B\232\031]D\000\200gDUM\351G\000\000\230B\000\000\230B\000\200*C\000\000\230B\000\000\343C\000\000\343C\000\211\013G\000\000\230B\000\000\230B\232\231HC\000\000\230B\315\314\032D\000\200gD\315-\232G\000\000XB\000\000XB\000\000hB\000\000XB\232\231\231B\000\000\234B\000\000\300B\000\000XB\000\000XB\000\000\\B\000\000XB\000\000hB\000\000hB\000\000\200@\000\000XB\000\000XB33cB\000\000XB\000\000\202B\000\000\234B\234DdB\000\000@@\000\000\200@\000\000\240@\000\000\200@\000\000\000\000\000\000\000\000\000\000\000\000\000\000\000\000\000\000\000\000\000\000\000\000\000\000\000\000\000\000\000\000\000\000@@\000\000\200@\000\200cD\000\000\200?\000\000\200?\000\000\200?\000\000\200?\000\000\200?\000\000\200?\000\000\200?\000\000\000\000\000\000\000\000\000\000\000\000\000\000\230B\000\000\230B\000\000\247C\000\000\230B\000\000\252D\000\000\252D\000\241\240H\000\000\230B\000\000\230B?U*C\000\000\234B\000\200\262C\000\200\262C\252,\314F\000\000\230B\000\000\230B\000P\210C\000\000\232B\315<|D\000\000\252D\355\337EH\000\000XB\000\000XB\232\231aB\000\000XB\000\000\204B\000\000\204Bff\346A\000\000XB\000\000XB\002\253bB\000\000XB\000\000xB\000\000xB\374\251\252A\000\000XB\000\000XB\000\000bB\000\000XB33\201B\000\000\204Bh\221\264A\000\000@@\000\000@@\000\000\200@\000\000@@\000\000\200?\000\000\000\000\000\000\000\000\000\000\000\000\000\000\000\000\000\000\000\000\000\000\000\000\000\000\000\000\000\000@@\000\000@@\000\000\250D\000\000\200?\000\000\200?\000\000\200?\000\000\200?\000\000\200?\000\000\200?\000\000\000\000\000\000\000\000\000\000\000\000\000\000\000\000\000\000\244B\000\000\244B\232\231\"C\000\000\244B\000\200\356C\000\200\356C\232k\361F\000\000\244B\000\000\244B\232\231MC\000\000\244B\000\000-D\000\000-Dfl\220G\000\000\244B\000\000\244B\232\0318C\000\000\244B\000\020\nD\000\000-D\032\0108G\000\000\204B\000\000\204B33\207B\000\000\204B\000\000\224B\000\000\224B\315\314LA\000\000\204B\000\000\204B33\207B\000\000\204B\000\000\224B\000\000\224B\315\314LA\000\000\204B\000\000\204B33\207B\000\000\204B\000\000\224B\000\000\224BJ\0146A\000\000@@\000\000\200@\000\000\200@\000\000\240@\000\000\200?\000\000\000\000\000\000\000\000\000\000\000\000\000\000\000\000\000\000\000\000\000\000\000\000\000\000\000\000\000\000@@\000\000\200@\000\200\335C\000\000\200?\000\000\200?\000\000\200?\000\000\200?\000\000\200?\000\000\200?\000\000\200?\000\000\200?\000\000\000\000\000\000\000\000\000\000\230B\000\000\230Bf\246DD\000\2003D\000@\277D\000@\277D^\352\345H\000\000\230B\000\000\230BNR\nD\000\000\244B3s\270D\000@\277D\262\275\303H\000\000\230B\000\000\230B\333\241,D\000@%D\000@\277D\000@\277D\034\222\321H\000\000XB\000\000XB\315\314\\B\000\000XB\315\314hB\000\000\204BfffA\000\000XB\000\000XB#\333^B\000\000XBff~B\000\000\204Bh\221\244A\000\000XB\000\000XB\343\245]B\000\000XBfffB\000\000\204B\254\034~A\000\000\000A\000\000\240@\000\000\020A\000\000\340@\000\000\200?\000\000\000\000\000\000\000\000\000\000\000\000\000\000\000\000\000\000\000\000\000\000\000\000\000\000\000\000\000\000\000A\000\000\240@\0000\343E\000\000\000@\000\000\000@\000\000\200?\000\000\200?\000\000\000\000\000\000\000\000\000\000\000\000\000\000\200?\000\000\000\000\000\000\000\000\000\000\230B\000\000\230B\000\200yC\000\000\nC\000@\013D\000\000\rDnu5G\000\000\230B\000\000\230B\232y(D\000\300\331C\000@\277D\000@\277D\312X\332H\000\000\230B\000\000\230B\226\243\362C\000\200\033C\000@\277D\000@\277D\207\355\223H\000\000XB\000\000XB\000\000^B\000\000XB33wB\000\000\204B\000\000\220A\000\000XB\000\000XB\315\314\\B\000\000XB\315\314hB\000\000\204BfffA\000\000XB\000\000XB\376T]B\000\000XB33_B\000\000\204B\252\361pA\000\000\300@\000\000\340@\000\000\340@\000\000 A\000\000\200?\000\000\000\000\000\000\000\000\000\000\000\000\000\000\000\000\000\000\000\000\000\000\000\000\000\000\000\000\000\000\300@\000\000\340@\000\200\274D\000\000\200@\000\000\300@\000\000\200?\000\000\200?\000\000\000\000\000\000\000\000\000\000\000\000\000\000\000\000\000\000\000\000\000\000\000\000\000\000\230B\000\000\230B\242\305\302B\000\000\230B\000\000\nC\000\000\253Cwl\002E\000\000\230B\000\000\364B\327\003\rC\000\000\364B\000\000\364B\000\200\027Dh\302\017F\000\000\230B\000\000\266B\033\317\000C\000\000\364B\000\000\364B\000\200\027D\343\374\354E\000\000XB\000\000XB\266\363XB\000\000XB\000\000XB\000\000\204B\010\2544@\000\000XB\000\000XB\276\037XB\000\000XB\000\000XB\000\000hBm\347\373=\000\000XB\000\000XB#[XB\000\000XB\000\000XB\000\000\204B7\211a?\000\000\020B\000\000{C\000\000\306B\000\000\202C\000\000@@\000\000\200?\000\000\000\000\000\000\000\000\000\000\000\000\000\000\000\000\000\000\000\000\000\000\000\000\000\000\020B\000\000{C\000\0007E\000\000\360A\000\000qC\000\000\000@\000\000\000@\000\000\000@\000\000\000@\000\000\000\000\000\000\000@\000\000\000\000\000\000\000\000\000\000\230B\000\000\230Bd[\334C\000\300\332C\000\000JD\000\000JDq\233\nH\000\000\230B\000\000\230B\266\263HD\000\340aD\315,\277D\000@\277D!\306\324H\000\000\230B\000\000\230B\315\004)D\000@FD\000\300\274D\000@\277D\277n\256H\000\000XB\000\000XB#\333^B\000\000XB\000\000|B\000\000\204By\351\227A\000\000XB\000\000XB\027\331YB\000\000XB\000\000XB\000\000\204BL7\261@\000\000XB\000\000XB\232\231[B\000\000XB\000\000XB\000\000\204B\236\357#A\000\000\020A\000\000\210A\000\000PA\000\000\320A\000\000\200?\000\000\200?\000\000\000\000\000\000\000\000\000\000\000\000\000\000\000\000\000\000\000\000\000\000\000\000\000\000\020A\000\000\210A\0000\245E\000\000\340@\000\000PA\000\000\200?\000\000\200?\000\000\000\000\000\000\000\000\000\000\000\000\000\000\200?\000\000\000\000\000\000\000\000\000\000\230B\000\000\230B\000\000\352B\000\000\230B\315L]C\000\000\360CU=~F\000\000\230B\000\000\233B\260\232(D\000\000\244B\000@\277D\000@\277DV:\004I\000\000\230B\000\000\230B\303\205\322C\000\000\236B\000@\277D\000@\277D\010V\265H\000\000XB\000\000XB\315\314\\B\000\000XB\315\314hB\000\000\204BfffA\000\000XB\000\000XB\000\000hB\000\000XB\000\000\204B\000\000\204B\321\242\013B\000\000XB\000\000XBs\350bB\000\000XB\000\000\204B\000\000\204B\266\363\323A\000\000\200@\000\000\000A\000\000\020A\000\000@A\000\000\000@\000\000\000\000\000\000\000\000\000\000\000\000\000\000\000\000\000\000\000\000\000\000\000\000\000\000\000\000\000\000\200@\000\000\000A\000\000\363C\000\000\200?\000\000\200?\000\000\200?\000\000\200?\000\000\200?\000\000\200?\000\000\000\000\000\000\200?\000\000\000\000\000\000\000\000\000\000\244B\000\000\244B\232\2313C\000\000\244B\000\200\014D\000\200\014D\315\2142G\000\000\244B\000\000\244B\232\231pC\000\000\244B\000\300XD\000\300XD\346\202\357G\000\000\244B\000\000\244B\232\031RC\000\000\244B\0000\'D\000\300XDb%\224G\000\000\204B\000\000\204B33\207B\000\000\204B\000\000\224B\000\000\224B\315\314LA\000\000\204B\000\000\204B33\207B\000\000\204B\000\000\224B\000\000\224B\315\314LA\000\000\204B\000\000\204B33\207B\000\000\204B\000\000\224B\000\000\224BJ\0146A\000\000@@\000\000\200@\000\000\200@\000\000\240@\000\000\000\000\000\000\000\000\000\000\000\000\000\000\000\000\000\000\000\000\000\000\000\000\000\000\000\000\000\000\000\000\000\000@@\000\000\200@\000\000\004D\000\000\200?\000\000\200?\000\000\200?\000\000\200?\000\000\200?\000\000\200?\000\000\200?\000\000\200?\000\000\000\000\000\000\000\000\000\000\230B\000\000\230B\3050\257C\000\200\337C3#&D\000\000-D\301\212\210G\000\000\230B\000@dD\315\010\216D\000@\265D\000@\265D\000@\265D~\205FH\000\000\230B\000\200LC\270VCD\000@&D\000@\265D\000@\265D\222\250\220H\000\000XB\000\000XB\335$YB\000\000XB\000\000XB\000\000\204B\274t[@\000\000XB\000\000XB\244\360XB\000\000XB\000\000XB\000\000\204Bj\2744@\000\000XB\000\000XB1\010YB\000\000XB\000\000XB\000\000\204B1\010D@\000\000\300A\000\000HB\000\000$B\000\000LB\000\000\000@\000\000\200?\000\000\000\000\000\000\000\000\000\000\000\000\000\000\000\000\000\000\000\000\000\000\000\000\000\000\300A\000\000HB\000(-F\000\000\270A\000\000\250A\000\000\200?\000\000\200?\000\000\000\000\000\000\000\000\000\000\000\000\000\000\000\000\000\000\000\000\000\000\000\000\000\000\230B\000\000\230B\240j\311C\000\000\236B\000@\272D\000@\272Dy\273\222H\000\000\230B\000\000\230B\000\200\241C\000\000\230B3\323\242D\000 \244D\000\316\202H\000\000\230B\000\000\230B\303E\267C\000\000\230B\2329\243D\000@\272D-\272\205H\000\000XB\000\000XB\000\000`B\000\000XB\000\000\204B\000\000\204BD\213\256A\000\000XB\000\000XB\232\231aB\000\000XB\000\000\204B\000\000\204B\315\314\314A\000\000XB\000\000XB^\272`B\000\000XB\000\000\204B\000\000\204B7\211\263A\000\000\000A\000\000\300@\000\000 A\000\000 A\000\000\000@\000\000\000\000\000\000\000\000\000\000\000\000\000\000\000\000\000\000\000\000\000\000\000\000\000\000\000\000\000\000\000A\000\000\300@\000\240~E\000\000\000@\000\000\000\000\000\000\000@\000\000\000@\000\000\000@\000\000\000@\000\000\000\000\000\000\000@\000\000\000\000\000\000\000\000\000\000\230B\000\000\230B\3258\300B\000\000\230B\315\314\231B\000\000\330Cm\247\333E\000\000\230B\000\200}Ds\314\221D\000\200\273D\000\200\273D\000\200\273D\025\026\257H\000\000\230B\000\000\230BRhJD\000\000\223D\000\200\273D\000\200\273D\367\\\363H\000\000XB\000\000XB\002\253ZB\000\000XB\000\000XB\000\000\204B\000\000\000A\000\000XB\000\000XB\002\253^B\000\000XB\232\231mB\000\000\204BF\266\215A\000\000XB\000\000XB\376T]B\000\000XB\000\000XB\000\000\204B#\333gA\000\000\200@\000\000\370A\000\000\210A\000\000\014B\000\000\200?\000\000\340A\000\000\000\000\000\000\000\000\000\000\000\000\000\000\000\000\000\000\000\000\000\000\000\000\000\000\200@\000\000\370A\000\000\244B\000\000\200?\000\000\200?\000\000\200?\000\000\200?\000\000\200?\000\000\200?\000\000\000\000\000\000\200?\000\000\000\000\000\000\000\000\000\000\230B\000\000\230B\301\n:C\000\000\230B\000\340\275C\000\3002D,\235%G\000\000\230B\000\000\244B\027I\231C\000\000\021C\000\000\316C\000@\277D\035}1H\000\000\230B\000\000\230B\374IrC\000\000\244B\000\000\316C\000@\277D~\334\323G\000\000XB\000\000XB\000\000`B\000\000XB\000\000\204B\000\000\204B\303\365\246A\000\000XB\000\000XB\221mcB\000\000XB\000\000\204B\000\000\204B\230n\333A\000\000XB\000\000XB\232\231aB\000\000XB\000\000\204B\000\000\204B\022\203\274A\000\000@A\000\000pA\000\000\260A\000\000\250A\000\000\200@\000\000@@\000\000\000\000\000\000\000\000\000\000\000\000\000\000\000\000\000\000\000\000\000\000\000\000\000\000@A\000\000pA\000P3E\000\000\340@\000\000 A\000\000\000@\000\000\000@\000\000\200?\000\000\200?\000\000\000\000\000\000\000@\000\000\000\000\000\000\000\000\000\000\244B\000\000\244B\301*\024C\000\000\244B3s\315C\000\200\007D|\266\272F\000\000\244B\000\240=D5\216\223D\000@\277D\000@\277D\000@\277D*\223\265H\000\000\244B\000\000\244B\035\342?D\000\200\354C\000@\277D\000@\277D,